{
  "version": "1.0",
  "truncation": {
    "direction": "Right",
    "max_length": 256,
    "strategy": "LongestFirst",
    "stride": 0
  },
  "padding": null,
  "added_tokens": [
    {
      "id": 0,
      "content": "[PAD]",
      "single_word": false,
      "lstrip": false,
      "rstrip": false,
      "normalized": false,
      "special": true
    },
    {
      "id": 1,
      "content": "[UNK]",
      "single_word": false,
      "lstrip": false,
      "rstrip": false,
      "normalized": false,
      "special": true
    },
    {
      "id": 2,
      "content": "[CLS]",
      "single_word": false,
      "lstrip": false,
      "rstrip": false,
      "normalized": false,
      "special": true
    },
    {
      "id": 3,
      "content": "[SEP]",
      "single_word": false,
      "lstrip": false,
      "rstrip": false,
      "normalized": false,
      "special": true
    },
    {
      "id": 4,
      "content": "[MASK]",
      "single_word": false,
      "lstrip": false,
      "rstrip": false,
      "normalized": false,
      "special": true
    }
  ],
  "normalizer": {
    "type": "BertNormalizer",
    "clean_text": true,
    "handle_chinese_chars": true,
    "strip_accents": null,
    "lowercase": false
  },
  "pre_tokenizer": {
    "type": "BertPreTokenizer"
  },
  "post_processor": {
    "type": "TemplateProcessing",
    "single": [
      {
        "SpecialToken": {
          "id": "[CLS]",
          "type_id": 0
        }
      },
      {
        "Sequence": {
          "id": "A",
          "type_id": 0
        }
      },
      {
        "SpecialToken": {
          "id": "[SEP]",
          "type_id": 0
        }
      }
    ],
    "pair": [
      {
        "SpecialToken": {
          "id": "[CLS]",
          "type_id": 0
        }
      },
      {
        "Sequence": {
          "id": "A",
          "type_id": 0
        }
      },
      {
        "SpecialToken": {
          "id": "[SEP]",
          "type_id": 0
        }
      },
      {
        "Sequence": {
          "id": "B",
          "type_id": 1
        }
      },
      {
        "SpecialToken": {
          "id": "[SEP]",
          "type_id": 1
        }
      }
    ],
    "special_tokens": {
      "[CLS]": {
        "id": "[CLS]",
        "ids": [
          2
        ],
        "tokens": [
          "[CLS]"
        ]
      },
      "[SEP]": {
        "id": "[SEP]",
        "ids": [
          3
        ],
        "tokens": [
          "[SEP]"
        ]
      }
    }
  },
  "decoder": {
    "type": "WordPiece",
    "prefix": "##",
    "cleanup": true
  },
  "model": {
    "type": "WordPiece",
    "unk_token": "[UNK]",
    "continuing_subword_prefix": "##",
    "max_input_chars_per_word": 100,
    "vocab": {
      "[PAD]": 0,
      "[UNK]": 1,
      "[CLS]": 2,
      "[SEP]": 3,
      "[MASK]": 4,
      "!": 5,
      "\"": 6,
      "#": 7,
      "$": 8,
      "%": 9,
      "&": 10,
      "'": 11,
      "(": 12,
      ")": 13,
      "*": 14,
      "+": 15,
      ",": 16,
      "-": 17,
      ".": 18,
      "/": 19,
      "0": 20,
      "1": 21,
      "2": 22,
      "3": 23,
      "4": 24,
      "5": 25,
      "6": 26,
      "7": 27,
      "8": 28,
      "9": 29,
      ":": 30,
      ";": 31,
      "<": 32,
      "=": 33,
      ">": 34,
      "?": 35,
      "@": 36,
      "[": 37,
      "\\": 38,
      "]": 39,
      "^": 40,
      "_": 41,
      "`": 42,
      "a": 43,
      "b": 44,
      "c": 45,
      "d": 46,
      "e": 47,
      "f": 48,
      "g": 49,
      "h": 50,
      "i": 51,
      "j": 52,
      "k": 53,
      "l": 54,
      "m": 55,
      "n": 56,
      "o": 57,
      "p": 58,
      "q": 59,
      "r": 60,
      "s": 61,
      "t": 62,
      "u": 63,
      "v": 64,
      "w": 65,
      "x": 66,
      "y": 67,
      "z": 68,
      "{": 69,
      "|": 70,
      "}": 71,
      "~": 72,
      "¡": 73,
      "¢": 74,
      "£": 75,
      "¤": 76,
      "¥": 77,
      "¦": 78,
      "§": 79,
      "¨": 80,
      "©": 81,
      "ª": 82,
      "«": 83,
      "¬": 84,
      "®": 85,
      "¯": 86,
      "°": 87,
      "±": 88,
      "²": 89,
      "³": 90,
      "´": 91,
      "µ": 92,
      "¶": 93,
      "·": 94,
      "¸": 95,
      "¹": 96,
      "º": 97,
      "»": 98,
      "¼": 99,
      "½": 100,
      "¾": 101,
      "¿": 102,
      "×": 103,
      "ß": 104,
      "à": 105,
      "á": 106,
      "â": 107,
      "ã": 108,
      "ä": 109,
      "å": 110,
      "æ": 111,
      "ç": 112,
      "è": 113,
      "é": 114,
      "ê": 115,
      "ë": 116,
      "ì": 117,
      "í": 118,
      "î": 119,
      "ï": 120,
      "ð": 121,
      "ñ": 122,
      "ò": 123,
      "ó": 124,
      "ô": 125,
      "õ": 126,
      "ö": 127,
      "÷": 128,
      "ø": 129,
      "ù": 130,
      "ú": 131,
      "û": 132,
      "ü": 133,
      "ý": 134,
      "þ": 135,
      "ÿ": 136,
      "ā": 137,
      "ă": 138,
      "ą": 139,
      "ć": 140,
      "ĉ": 141,
      "č": 142,
      "ď": 143,
      "đ": 144,
      "ē": 145,
      "ė": 146,
      "ę": 147,
      "ě": 148,
      "ĝ": 149,
      "ğ": 150,
      "ġ": 151,
      "ģ": 152,
      "ĥ": 153,
      "ħ": 154,
      "ĩ": 155,
      "ī": 156,
      "ĭ": 157,
      "ı": 158,
      "ĵ": 159,
      "ķ": 160,
      "ĸ": 161,
      "ļ": 162,
      "ł": 163,
      "ń": 164,
      "ņ": 165,
      "ň": 166,
      "ŋ": 167,
      "ō": 168,
      "ŏ": 169,
      "ő": 170,
      "œ": 171,
      "ŗ": 172,
      "ř": 173,
      "ś": 174,
      "ŝ": 175,
      "ş": 176,
      "š": 177,
      "ţ": 178,
      "ť": 179,
      "ŧ": 180,
      "ũ": 181,
      "ū": 182,
      "ŭ": 183,
      "ů": 184,
      "ų": 185,
      "ŵ": 186,
      "ŷ": 187,
      "ż": 188,
      "ž": 189,
      "ƒ": 190,
      "ƹ": 191,
      "ǃ": 192,
      "ǎ": 193,
      "ǐ": 194,
      "ǒ": 195,
      "ǔ": 196,
      "ǚ": 197,
      "ǝ": 198,
      "ǣ": 199,
      "ǧ": 200,
      "ǵ": 201,
      "ȁ": 202,
      "ș": 203,
      "ț": 204,
      "ɍ": 205,
      "ɐ": 206,
      "ɑ": 207,
      "ɒ": 208,
      "ɔ": 209,
      "ɕ": 210,
      "ɖ": 211,
      "ə": 212,
      "ɛ": 213,
      "ɜ": 214,
      "ɝ": 215,
      "ɡ": 216,
      "ɣ": 217,
      "ɥ": 218,
      "ɦ": 219,
      "ɧ": 220,
      "ɨ": 221,
      "ɪ": 222,
      "ɫ": 223,
      "ɬ": 224,
      "ɭ": 225,
      "ɯ": 226,
      "ɲ": 227,
      "ɳ": 228,
      "ɴ": 229,
      "ɵ": 230,
      "ɶ": 231,
      "ɸ": 232,
      "ɹ": 233,
      "ɻ": 234,
      "ɾ": 235,
      "ʁ": 236,
      "ʂ": 237,
      "ʃ": 238,
      "ʇ": 239,
      "ʈ": 240,
      "ʉ": 241,
      "ʊ": 242,
      "ʋ": 243,
      "ʌ": 244,
      "ʑ": 245,
      "ʒ": 246,
      "ʔ": 247,
      "ʕ": 248,
      "ʝ": 249,
      "ʟ": 250,
      "ʰ": 251,
      "ʲ": 252,
      "ʷ": 253,
      "ʹ": 254,
      "ʻ": 255,
      "ʼ": 256,
      "ʾ": 257,
      "ʿ": 258,
      "ˀ": 259,
      "ˁ": 260,
      "ˆ": 261,
      "ˇ": 262,
      "ˈ": 263,
      "ˉ": 264,
      "ˊ": 265,
      "ˌ": 266,
      "ː": 267,
      "ˑ": 268,
      "˘": 269,
      "˙": 270,
      "˚": 271,
      "˛": 272,
      "˜": 273,
      "˝": 274,
      "˟": 275,
      "ˤ": 276,
      "ˮ": 277,
      "˸": 278,
      "̀": 279,
      "́": 280,
      "̂": 281,
      "̃": 282,
      "̄": 283,
      "̅": 284,
      "̆": 285,
      "̇": 286,
      "̈": 287,
      "̋": 288,
      "̍": 289,
      "̎": 290,
      "̒": 291,
      "̚": 292,
      "̞": 293,
      "̣": 294,
      "̥": 295,
      "̩": 296,
      "̪": 297,
      "̯": 298,
      "̰": 299,
      "̲": 300,
      "̴": 301,
      "̵": 302,
      "̷": 303,
      "͆": 304,
      "͈": 305,
      "͑": 306,
      "͒": 307,
      "͡": 308,
      ";": 309,
      "·": 310,
      "ΐ": 311,
      "ά": 312,
      "έ": 313,
      "ή": 314,
      "ί": 315,
      "α": 316,
      "β": 317,
      "γ": 318,
      "δ": 319,
      "ε": 320,
      "ζ": 321,
      "η": 322,
      "θ": 323,
      "ι": 324,
      "κ": 325,
      "λ": 326,
      "μ": 327,
      "ν": 328,
      "ξ": 329,
      "ο": 330,
      "π": 331,
      "ρ": 332,
      "ς": 333,
      "σ": 334,
      "τ": 335,
      "υ": 336,
      "φ": 337,
      "χ": 338,
      "ψ": 339,
      "ω": 340,
      "ϊ": 341,
      "ό": 342,
      "ύ": 343,
      "ώ": 344,
      "ϕ": 345,
      "ϟ": 346,
      "ϯ": 347,
      "ϵ": 348,
      "а": 349,
      "б": 350,
      "в": 351,
      "г": 352,
      "д": 353,
      "е": 354,
      "ж": 355,
      "з": 356,
      "и": 357,
      "й": 358,
      "к": 359,
      "л": 360,
      "м": 361,
      "н": 362,
      "о": 363,
      "п": 364,
      "р": 365,
      "с": 366,
      "т": 367,
      "у": 368,
      "ф": 369,
      "х": 370,
      "ц": 371,
      "ч": 372,
      "ш": 373,
      "щ": 374,
      "ъ": 375,
      "ы": 376,
      "ь": 377,
      "э": 378,
      "ю": 379,
      "я": 380,
      "ё": 381,
      "ђ": 382,
      "є": 383,
      "ѕ": 384,
      "і": 385,
      "ї": 386,
      "ј": 387,
      "ћ": 388,
      "ќ": 389,
      "ў": 390,
      "џ": 391,
      "҆": 392,
      "қ": 393,
      "ҡ": 394,
      "ү": 395,
      "ҷ": 396,
      "ӂ": 397,
      "ӏ": 398,
      "ӣ": 399,
      "ӧ": 400,
      "ө": 401,
      "ա": 402,
      "ե": 403,
      "ի": 404,
      "լ": 405,
      "ծ": 406,
      "հ": 407,
      "ղ": 408,
      "մ": 409,
      "յ": 410,
      "ն": 411,
      "ռ": 412,
      "ս": 413,
      "ր": 414,
      "ְ": 415,
      "ֲ": 416,
      "ִ": 417,
      "ֵ": 418,
      "ֶ": 419,
      "ַ": 420,
      "ָ": 421,
      "ֹ": 422,
      "ֺ": 423,
      "ֻ": 424,
      "ּ": 425,
      "ֽ": 426,
      "־": 427,
      "ׁ": 428,
      "ׂ": 429,
      "׃": 430,
      "א": 431,
      "ב": 432,
      "ג": 433,
      "ד": 434,
      "ה": 435,
      "ו": 436,
      "ז": 437,
      "ח": 438,
      "ט": 439,
      "י": 440,
      "ך": 441,
      "כ": 442,
      "ל": 443,
      "ם": 444,
      "מ": 445,
      "ן": 446,
      "נ": 447,
      "ס": 448,
      "ע": 449,
      "פ": 450,
      "ץ": 451,
      "צ": 452,
      "ק": 453,
      "ר": 454,
      "ש": 455,
      "ת": 456,
      "،": 457,
      "؟": 458,
      "ء": 459,
      "آ": 460,
      "أ": 461,
      "ؤ": 462,
      "إ": 463,
      "ئ": 464,
      "ا": 465,
      "ب": 466,
      "ة": 467,
      "ت": 468,
      "ث": 469,
      "ج": 470,
      "ح": 471,
      "خ": 472,
      "د": 473,
      "ذ": 474,
      "ر": 475,
      "ز": 476,
      "س": 477,
      "ش": 478,
      "ص": 479,
      "ض": 480,
      "ط": 481,
      "ظ": 482,
      "ع": 483,
      "غ": 484,
      "ف": 485,
      "ق": 486,
      "ك": 487,
      "ل": 488,
      "م": 489,
      "ن": 490,
      "ه": 491,
      "و": 492,
      "ى": 493,
      "ي": 494,
      "ً": 495,
      "ٌ": 496,
      "َ": 497,
      "ُ": 498,
      "ِ": 499,
      "ّ": 500,
      "ْ": 501,
      "ٛ": 502,
      "٠": 503,
      "١": 504,
      "٥": 505,
      "٦": 506,
      "٨": 507,
      "٩": 508,
      "ٰ": 509,
      "ٴ": 510,
      "ٹ": 511,
      "ټ": 512,
      "پ": 513,
      "چ": 514,
      "ډ": 515,
      "ڌ": 516,
      "ڑ": 517,
      "ڕ": 518,
      "ښ": 519,
      "ک": 520,
      "گ": 521,
      "ڵ": 522,
      "ھ": 523,
      "ہ": 524,
      "ۆ": 525,
      "ۇ": 526,
      "ی": 527,
      "ە": 528,
      "۞": 529,
      "۩": 530,
      "۰": 531,
      "۱": 532,
      "۲": 533,
      "۴": 534,
      "۶": 535,
      "۷": 536,
      "۹": 537,
      "ހ": 538,
      "ށ": 539,
      "ނ": 540,
      "ރ": 541,
      "ބ": 542,
      "ޅ": 543,
      "ކ": 544,
      "އ": 545,
      "ވ": 546,
      "މ": 547,
      "ފ": 548,
      "ދ": 549,
      "ތ": 550,
      "ލ": 551,
      "ގ": 552,
      "ސ": 553,
      "ޔ": 554,
      "ޖ": 555,
      "ަ": 556,
      "ާ": 557,
      "ި": 558,
      "ު": 559,
      "ޫ": 560,
      "ެ": 561,
      "ޭ": 562,
      "ޮ": 563,
      "ް": 564,
      "ँ": 565,
      "ं": 566,
      "ः": 567,
      "अ": 568,
      "आ": 569,
      "इ": 570,
      "ई": 571,
      "उ": 572,
      "ऊ": 573,
      "ए": 574,
      "क": 575,
      "ख": 576,
      "ग": 577,
      "घ": 578,
      "ङ": 579,
      "च": 580,
      "ज": 581,
      "झ": 582,
      "ञ": 583,
      "ट": 584,
      "ठ": 585,
      "ड": 586,
      "ढ": 587,
      "ण": 588,
      "त": 589,
      "थ": 590,
      "द": 591,
      "ध": 592,
      "न": 593,
      "प": 594,
      "फ": 595,
      "ब": 596,
      "भ": 597,
      "म": 598,
      "य": 599,
      "र": 600,
      "ल": 601,
      "ळ": 602,
      "व": 603,
      "श": 604,
      "ष": 605,
      "स": 606,
      "ह": 607,
      "़": 608,
      "ा": 609,
      "ि": 610,
      "ी": 611,
      "ु": 612,
      "ू": 613,
      "ृ": 614,
      "े": 615,
      "ै": 616,
      "ो": 617,
      "ौ": 618,
      "्": 619,
      "फ़": 620,
      "।": 621,
      "॥": 622,
      "ঁ": 623,
      "ং": 624,
      "অ": 625,
      "আ": 626,
      "ই": 627,
      "উ": 628,
      "ঋ": 629,
      "এ": 630,
      "ক": 631,
      "গ": 632,
      "ঘ": 633,
      "ছ": 634,
      "জ": 635,
      "ট": 636,
      "ঠ": 637,
      "ণ": 638,
      "ত": 639,
      "থ": 640,
      "দ": 641,
      "ধ": 642,
      "ন": 643,
      "প": 644,
      "ব": 645,
      "ভ": 646,
      "ম": 647,
      "য": 648,
      "র": 649,
      "ল": 650,
      "শ": 651,
      "ষ": 652,
      "স": 653,
      "হ": 654,
      "়": 655,
      "া": 656,
      "ি": 657,
      "ী": 658,
      "ু": 659,
      "ূ": 660,
      "ে": 661,
      "ো": 662,
      "্": 663,
      "ৎ": 664,
      "০": 665,
      "ਉ": 666,
      "ਏ": 667,
      "ਕ": 668,
      "ਖ": 669,
      "ਗ": 670,
      "ਘ": 671,
      "ਟ": 672,
      "ਤ": 673,
      "ਦ": 674,
      "ਧ": 675,
      "ਨ": 676,
      "ਪ": 677,
      "ਬ": 678,
      "ਭ": 679,
      "ਮ": 680,
      "ਰ": 681,
      "ਲ": 682,
      "ਵ": 683,
      "ਸ": 684,
      "ਹ": 685,
      "ਾ": 686,
      "ਿ": 687,
      "ੁ": 688,
      "ੇ": 689,
      "ੈ": 690,
      "ੋ": 691,
      "੧": 692,
      "ੰ": 693,
      "ੴ": 694,
      "ગ": 695,
      "જ": 696,
      "ત": 697,
      "થ": 698,
      "ર": 699,
      "લ": 700,
      "ા": 701,
      "ી": 702,
      "ુ": 703,
      "ો": 704,
      "ଉ": 705,
      "କ": 706,
      "ଣ": 707,
      "ଦ": 708,
      "ମ": 709,
      "ର": 710,
      "ଳ": 711,
      "ସ": 712,
      "ା": 713,
      "ୀ": 714,
      "େ": 715,
      "ୋ": 716,
      "୍": 717,
      "ஃ": 718,
      "அ": 719,
      "ஆ": 720,
      "இ": 721,
      "ஈ": 722,
      "உ": 723,
      "ஊ": 724,
      "எ": 725,
      "ஏ": 726,
      "ஐ": 727,
      "ஒ": 728,
      "ஓ": 729,
      "ஔ": 730,
      "க": 731,
      "ங": 732,
      "ச": 733,
      "ஜ": 734,
      "ஞ": 735,
      "ட": 736,
      "ண": 737,
      "த": 738,
      "ந": 739,
      "ன": 740,
      "ப": 741,
      "ம": 742,
      "ய": 743,
      "ர": 744,
      "ற": 745,
      "ல": 746,
      "ள": 747,
      "ழ": 748,
      "வ": 749,
      "ஶ": 750,
      "ஷ": 751,
      "ஸ": 752,
      "ஹ": 753,
      "ா": 754,
      "ி": 755,
      "ீ": 756,
      "ு": 757,
      "ூ": 758,
      "ெ": 759,
      "ே": 760,
      "ை": 761,
      "ொ": 762,
      "ோ": 763,
      "ௌ": 764,
      "்": 765,
      "௧": 766,
      "௨": 767,
      "ం": 768,
      "అ": 769,
      "గ": 770,
      "జ": 771,
      "ఞ": 772,
      "త": 773,
      "ధ": 774,
      "న": 775,
      "ప": 776,
      "మ": 777,
      "ర": 778,
      "ల": 779,
      "స": 780,
      "ా": 781,
      "ి": 782,
      "ు": 783,
      "ూ": 784,
      "ె": 785,
      "్": 786,
      "౦": 787,
      "ಂ": 788,
      "ಆ": 789,
      "ಕ": 790,
      "ಜ": 791,
      "ಟ": 792,
      "ಠ": 793,
      "ಡ": 794,
      "ಣ": 795,
      "ತ": 796,
      "ದ": 797,
      "ನ": 798,
      "ಪ": 799,
      "ಬ": 800,
      "ಭ": 801,
      "ಮ": 802,
      "ಯ": 803,
      "ರ": 804,
      "ಲ": 805,
      "ಳ": 806,
      "ವ": 807,
      "ಶ": 808,
      "ಸ": 809,
      "ಹ": 810,
      "ಾ": 811,
      "ಿ": 812,
      "ೀ": 813,
      "ು": 814,
      "ೆ": 815,
      "ೇ": 816,
      "ೈ": 817,
      "ೊ": 818,
      "್": 819,
      "ം": 820,
      "അ": 821,
      "ക": 822,
      "ഖ": 823,
      "ങ": 824,
      "ച": 825,
      "ട": 826,
      "ണ": 827,
      "ത": 828,
      "ദ": 829,
      "ന": 830,
      "പ": 831,
      "മ": 832,
      "യ": 833,
      "ര": 834,
      "റ": 835,
      "ല": 836,
      "ള": 837,
      "വ": 838,
      "സ": 839,
      "ഹ": 840,
      "ാ": 841,
      "ി": 842,
      "ീ": 843,
      "ു": 844,
      "ൂ": 845,
      "െ": 846,
      "ോ": 847,
      "്": 848,
      "ං": 849,
      "ඃ": 850,
      "අ": 851,
      "ආ": 852,
      "ඇ": 853,
      "ඈ": 854,
      "ඉ": 855,
      "ඊ": 856,
      "උ": 857,
      "ඌ": 858,
      "ඍ": 859,
      "ඎ": 860,
      "ඏ": 861,
      "ඐ": 862,
      "එ": 863,
      "ඒ": 864,
      "ඓ": 865,
      "ඔ": 866,
      "ඕ": 867,
      "ඖ": 868,
      "ක": 869,
      "ඛ": 870,
      "ග": 871,
      "ඝ": 872,
      "ඞ": 873,
      "ඟ": 874,
      "ච": 875,
      "ඡ": 876,
      "ජ": 877,
      "ඣ": 878,
      "ඤ": 879,
      "ඥ": 880,
      "ඦ": 881,
      "ට": 882,
      "ඨ": 883,
      "ඩ": 884,
      "ඪ": 885,
      "ණ": 886,
      "ඬ": 887,
      "ත": 888,
      "ථ": 889,
      "ද": 890,
      "ධ": 891,
      "න": 892,
      "ඳ": 893,
      "ප": 894,
      "ඵ": 895,
      "බ": 896,
      "භ": 897,
      "ම": 898,
      "ඹ": 899,
      "ය": 900,
      "ර": 901,
      "඼": 902,
      "ල": 903,
      "ව": 904,
      "ශ": 905,
      "ෂ": 906,
      "ස": 907,
      "හ": 908,
      "ළ": 909,
      "ෆ": 910,
      "්": 911,
      "ා": 912,
      "ැ": 913,
      "ෑ": 914,
      "ි": 915,
      "ී": 916,
      "ු": 917,
      "ූ": 918,
      "ෘ": 919,
      "ෙ": 920,
      "ේ": 921,
      "ෛ": 922,
      "ො": 923,
      "ෝ": 924,
      "ෞ": 925,
      "ෟ": 926,
      "෦": 927,
      "෧": 928,
      "෨": 929,
      "෯": 930,
      "ෲ": 931,
      "ෳ": 932,
      "෴": 933,
      "෿": 934,
      "ก": 935,
      "ข": 936,
      "ค": 937,
      "ง": 938,
      "จ": 939,
      "ฉ": 940,
      "ช": 941,
      "ฏ": 942,
      "ด": 943,
      "ต": 944,
      "ท": 945,
      "น": 946,
      "บ": 947,
      "พ": 948,
      "ภ": 949,
      "ม": 950,
      "ย": 951,
      "ร": 952,
      "ล": 953,
      "ว": 954,
      "ส": 955,
      "ห": 956,
      "อ": 957,
      "ะ": 958,
      "ั": 959,
      "า": 960,
      "ิ": 961,
      "ี": 962,
      "ึ": 963,
      "ุ": 964,
      "ู": 965,
      "฿": 966,
      "เ": 967,
      "แ": 968,
      "โ": 969,
      "ใ": 970,
      "ไ": 971,
      "็": 972,
      "่": 973,
      "้": 974,
      "๋": 975,
      "์": 976,
      "๏": 977,
      "๐": 978,
      "๑": 979,
      "๒": 980,
      "๬": 981,
      "ຌ": 982,
      "ຒ": 983,
      "຺": 984,
      "໣": 985,
      "໤": 986,
      "໦": 987,
      "໮": 988,
      "་": 989,
      "ག": 990,
      "ཅ": 991,
      "ཐ": 992,
      "ད": 993,
      "ན": 994,
      "པ": 995,
      "ཕ": 996,
      "བ": 997,
      "མ": 998,
      "ར": 999,
      "ི": 1000,
      "ུ": 1001,
      "ེ": 1002,
      "ོ": 1003,
      "ྟ": 1004,
      "က": 1005,
      "င": 1006,
      "စ": 1007,
      "ဇ": 1008,
      "ည": 1009,
      "န": 1010,
      "ပ": 1011,
      "ဗ": 1012,
      "မ": 1013,
      "လ": 1014,
      "သ": 1015,
      "ဟ": 1016,
      "အ": 1017,
      "ဦ": 1018,
      "ာ": 1019,
      "ိ": 1020,
      "ေ": 1021,
      "ဲ": 1022,
      "့": 1023,
      "း": 1024,
      "္": 1025,
      "်": 1026,
      "ျ": 1027,
      "ြ": 1028,
      "ွ": 1029,
      "ა": 1030,
      "გ": 1031,
      "დ": 1032,
      "ე": 1033,
      "ვ": 1034,
      "თ": 1035,
      "ი": 1036,
      "კ": 1037,
      "ლ": 1038,
      "მ": 1039,
      "ნ": 1040,
      "ო": 1041,
      "პ": 1042,
      "რ": 1043,
      "ს": 1044,
      "ტ": 1045,
      "ქ": 1046,
      "ღ": 1047,
      "ყ": 1048,
      "შ": 1049,
      "ძ": 1050,
      "ᄎ": 1051,
      "ሁ": 1052,
      "ህ": 1053,
      "ለ": 1054,
      "ሉ": 1055,
      "ላ": 1056,
      "ል": 1057,
      "ሕ": 1058,
      "መ": 1059,
      "ማ": 1060,
      "ም": 1061,
      "ረ": 1062,
      "ራ": 1063,
      "ር": 1064,
      "ሲ": 1065,
      "ቁ": 1066,
      "ቅ": 1067,
      "ባ": 1068,
      "ታ": 1069,
      "ት": 1070,
      "ች": 1071,
      "ነ": 1072,
      "ን": 1073,
      "ኛ": 1074,
      "ኝ": 1075,
      "አ": 1076,
      "ክ": 1077,
      "ዋ": 1078,
      "ው": 1079,
      "የ": 1080,
      "ያ": 1081,
      "ዬ": 1082,
      "ይ": 1083,
      "ዳ": 1084,
      "ድ": 1085,
      "ገ": 1086,
      "ግ": 1087,
      "ጥ": 1088,
      "ፍ": 1089,
      "ᗅ": 1090,
      "ᗷ": 1091,
      "ᗺ": 1092,
      "ᚼ": 1093,
      "ᛒ": 1094,
      "ក": 1095,
      "ខ": 1096,
      "គ": 1097,
      "ង": 1098,
      "ច": 1099,
      "ជ": 1100,
      "ញ": 1101,
      "ត": 1102,
      "ថ": 1103,
      "ន": 1104,
      "ប": 1105,
      "ផ": 1106,
      "ព": 1107,
      "ភ": 1108,
      "ម": 1109,
      "យ": 1110,
      "រ": 1111,
      "ល": 1112,
      "វ": 1113,
      "ស": 1114,
      "ា": 1115,
      "ី": 1116,
      "ឹ": 1117,
      "ុ": 1118,
      "ែ": 1119,
      "ៃ": 1120,
      "ំ": 1121,
      "៉": 1122,
      "្": 1123,
      "ᠠ": 1124,
      "ᠢ": 1125,
      "ᠦ": 1126,
      "ᠪ": 1127,
      "ᠬ": 1128,
      "ᠱ": 1129,
      "ᠳ": 1130,
      "ᠷ": 1131,
      "ᱟ": 1132,
      "ᱪ": 1133,
      "ᱷ": 1134,
      "ᱸ": 1135,
      "᳘": 1136,
      "ᴥ": 1137,
      "ᵝ": 1138,
      "ᵻ": 1139,
      "ᵽ": 1140,
      "ᵿ": 1141,
      "ḇ": 1142,
      "ḍ": 1143,
      "ḏ": 1144,
      "ḗ": 1145,
      "ḥ": 1146,
      "ḫ": 1147,
      "ḱ": 1148,
      "ḵ": 1149,
      "ḷ": 1150,
      "ḻ": 1151,
      "ṁ": 1152,
      "ṃ": 1153,
      "ṅ": 1154,
      "ṇ": 1155,
      "ṉ": 1156,
      "ṛ": 1157,
      "ṝ": 1158,
      "ṟ": 1159,
      "ṣ": 1160,
      "ṭ": 1161,
      "ṻ": 1162,
      "ẖ": 1163,
      "ạ": 1164,
      "ả": 1165,
      "ầ": 1166,
      "ậ": 1167,
      "ẻ": 1168,
      "ễ": 1169,
      "ệ": 1170,
      "ỉ": 1171,
      "ị": 1172,
      "ọ": 1173,
      "ố": 1174,
      "ồ": 1175,
      "ổ": 1176,
      "ộ": 1177,
      "ở": 1178,
      "ụ": 1179,
      "ứ": 1180,
      "ữ": 1181,
      "ỳ": 1182,
      "ἀ": 1183,
      "ἄ": 1184,
      "ἆ": 1185,
      "ἐ": 1186,
      "ἑ": 1187,
      "ἡ": 1188,
      "ἰ": 1189,
      "ἱ": 1190,
      "ἶ": 1191,
      "ὀ": 1192,
      "ὁ": 1193,
      "ὅ": 1194,
      "ὐ": 1195,
      "ὑ": 1196,
      "ὕ": 1197,
      "ὰ": 1198,
      "ὲ": 1199,
      "ὶ": 1200,
      "ὸ": 1201,
      "ὺ": 1202,
      "ᾶ": 1203,
      "ῆ": 1204,
      "ῇ": 1205,
      "ῖ": 1206,
      "῝": 1207,
      "῞": 1208,
      "ῥ": 1209,
      "ῦ": 1210,
      "ῳ": 1211,
      "ῷ": 1212,
      "‐": 1213,
      "‑": 1214,
      "‒": 1215,
      "–": 1216,
      "—": 1217,
      "―": 1218,
      "‖": 1219,
      "‘": 1220,
      "’": 1221,
      "‚": 1222,
      "‛": 1223,
      "“": 1224,
      "”": 1225,
      "„": 1226,
      "‟": 1227,
      "†": 1228,
      "‡": 1229,
      "•": 1230,
      "…": 1231,
      "‧": 1232,
      "‰": 1233,
      "′": 1234,
      "″": 1235,
      "‹": 1236,
      "›": 1237,
      "※": 1238,
      "‼": 1239,
      "⁄": 1240,
      "⁰": 1241,
      "⁶": 1242,
      "⁷": 1243,
      "⁸": 1244,
      "⁹": 1245,
      "⁻": 1246,
      "₀": 1247,
      "₁": 1248,
      "₂": 1249,
      "₃": 1250,
      "₄": 1251,
      "₆": 1252,
      "₋": 1253,
      "ₑ": 1254,
      "ₓ": 1255,
      "₤": 1256,
      "₦": 1257,
      "₨": 1258,
      "₩": 1259,
      "₫": 1260,
      "€": 1261,
      "₰": 1262,
      "₴": 1263,
      "₹": 1264,
      "₺": 1265,
      "₿": 1266,
      "⃣": 1267,
      "ℂ": 1268,
      "℃": 1269,
      "℉": 1270,
      "ℑ": 1271,
      "ℓ": 1272,
      "№": 1273,
      "℘": 1274,
      "ℜ": 1275,
      "™": 1276,
      "℧": 1277,
      "ℯ": 1278,
      "⅓": 1279,
      "⅔": 1280,
      "⅛": 1281,
      "⅜": 1282,
      "⅞": 1283,
      "ⅰ": 1284,
      "ⅱ": 1285,
      "ⅲ": 1286,
      "ⅳ": 1287,
      "ⅴ": 1288,
      "ⅵ": 1289,
      "←": 1290,
      "↑": 1291,
      "→": 1292,
      "↓": 1293,
      "↔": 1294,
      "↕": 1295,
      "↘": 1296,
      "↠": 1297,
      "↦": 1298,
      "↩": 1299,
      "↪": 1300,
      "↬": 1301,
      "↭": 1302,
      "↯": 1303,
      "↴": 1304,
      "↵": 1305,
      "↷": 1306,
      "↻": 1307,
      "⇌": 1308,
      "⇐": 1309,
      "⇑": 1310,
      "⇒": 1311,
      "⇔": 1312,
      "⇛": 1313,
      "⇝": 1314,
      "⇢": 1315,
      "⇨": 1316,
      "⇩": 1317,
      "⇪": 1318,
      "∀": 1319,
      "∂": 1320,
      "∅": 1321,
      "∆": 1322,
      "∇": 1323,
      "∈": 1324,
      "∋": 1325,
      "∎": 1326,
      "∏": 1327,
      "∑": 1328,
      "−": 1329,
      "∕": 1330,
      "∗": 1331,
      "∘": 1332,
      "∙": 1333,
      "√": 1334,
      "∝": 1335,
      "∞": 1336,
      "∠": 1337,
      "∩": 1338,
      "∪": 1339,
      "∫": 1340,
      "∴": 1341,
      "∶": 1342,
      "≈": 1343,
      "≠": 1344,
      "≡": 1345,
      "≤": 1346,
      "≥": 1347,
      "⊗": 1348,
      "⊙": 1349,
      "⊥": 1350,
      "⊰": 1351,
      "⊱": 1352,
      "⊿": 1353,
      "⋅": 1354,
      "⋆": 1355,
      "⋋": 1356,
      "⋯": 1357,
      "⌖": 1358,
      "⌚": 1359,
      "⌛": 1360,
      "〈": 1361,
      "〉": 1362,
      "⍈": 1363,
      "⏐": 1364,
      "⏩": 1365,
      "⏪": 1366,
      "⏰": 1367,
      "⏳": 1368,
      "⏵": 1369,
      "⏹": 1370,
      "⏺": 1371,
      "①": 1372,
      "②": 1373,
      "③": 1374,
      "④": 1375,
      "ⓔ": 1376,
      "ⓛ": 1377,
      "ⓞ": 1378,
      "ⓥ": 1379,
      "⓪": 1380,
      "⓵": 1381,
      "⓶": 1382,
      "⓷": 1383,
      "⓸": 1384,
      "⓻": 1385,
      "─": 1386,
      "│": 1387,
      "├": 1388,
      "┼": 1389,
      "║": 1390,
      "╔": 1391,
      "╗": 1392,
      "╚": 1393,
      "╝": 1394,
      "╪": 1395,
      "╬": 1396,
      "╰": 1397,
      "▀": 1398,
      "▂": 1399,
      "▃": 1400,
      "▄": 1401,
      "▅": 1402,
      "▆": 1403,
      "▇": 1404,
      "█": 1405,
      "▌": 1406,
      "▐": 1407,
      "░": 1408,
      "▒": 1409,
      "▓": 1410,
      "■": 1411,
      "□": 1412,
      "▢": 1413,
      "▣": 1414,
      "▪": 1415,
      "▫": 1416,
      "▬": 1417,
      "▲": 1418,
      "▶": 1419,
      "▷": 1420,
      "▸": 1421,
      "►": 1422,
      "▻": 1423,
      "▼": 1424,
      "▽": 1425,
      "◀": 1426,
      "◄": 1427,
      "◆": 1428,
      "◇": 1429,
      "◉": 1430,
      "◊": 1431,
      "○": 1432,
      "◌": 1433,
      "●": 1434,
      "◘": 1435,
      "◡": 1436,
      "◢": 1437,
      "◣": 1438,
      "◥": 1439,
      "◦": 1440,
      "◼": 1441,
      "◾": 1442,
      "☀": 1443,
      "☂": 1444,
      "☄": 1445,
      "★": 1446,
      "☆": 1447,
      "☉": 1448,
      "☎": 1449,
      "☐": 1450,
      "☑": 1451,
      "☔": 1452,
      "☖": 1453,
      "☗": 1454,
      "☘": 1455,
      "☚": 1456,
      "☛": 1457,
      "☜": 1458,
      "☝": 1459,
      "☞": 1460,
      "☟": 1461,
      "☠": 1462,
      "☢": 1463,
      "☣": 1464,
      "☪": 1465,
      "☫": 1466,
      "☭": 1467,
      "☮": 1468,
      "☯": 1469,
      "☸": 1470,
      "☹": 1471,
      "☺": 1472,
      "☻": 1473,
      "☼": 1474,
      "♀": 1475,
      "♂": 1476,
      "♈": 1477,
      "♉": 1478,
      "♊": 1479,
      "♋": 1480,
      "♐": 1481,
      "♔": 1482,
      "♕": 1483,
      "♚": 1484,
      "♛": 1485,
      "♠": 1486,
      "♡": 1487,
      "♢": 1488,
      "♣": 1489,
      "♥": 1490,
      "♦": 1491,
      "♧": 1492,
      "♨": 1493,
      "♩": 1494,
      "♪": 1495,
      "♫": 1496,
      "♬": 1497,
      "♭": 1498,
      "♮": 1499,
      "♯": 1500,
      "♻": 1501,
      "⚊": 1502,
      "⚑": 1503,
      "⚓": 1504,
      "⚔": 1505,
      "⚕": 1506,
      "⚘": 1507,
      "⚛": 1508,
      "⚜": 1509,
      "⚠": 1510,
      "⚡": 1511,
      "⚪": 1512,
      "⚫": 1513,
      "⚽": 1514,
      "⚾": 1515,
      "⛄": 1516,
      "⛈": 1517,
      "⛑": 1518,
      "⛔": 1519,
      "⛯": 1520,
      "⛰": 1521,
      "⛳": 1522,
      "⛵": 1523,
      "⛺": 1524,
      "⛽": 1525,
      "✂": 1526,
      "✅": 1527,
      "✆": 1528,
      "✈": 1529,
      "✉": 1530,
      "✊": 1531,
      "✋": 1532,
      "✌": 1533,
      "✍": 1534,
      "✏": 1535,
      "✐": 1536,
      "✒": 1537,
      "✓": 1538,
      "✔": 1539,
      "✖": 1540,
      "✗": 1541,
      "✘": 1542,
      "✚": 1543,
      "✝": 1544,
      "✞": 1545,
      "✡": 1546,
      "✥": 1547,
      "✨": 1548,
      "✩": 1549,
      "✪": 1550,
      "✬": 1551,
      "✮": 1552,
      "✰": 1553,
      "✱": 1554,
      "✴": 1555,
      "✶": 1556,
      "✺": 1557,
      "✿": 1558,
      "❀": 1559,
      "❁": 1560,
      "❂": 1561,
      "❃": 1562,
      "❄": 1563,
      "❆": 1564,
      "❇": 1565,
      "❉": 1566,
      "❋": 1567,
      "❌": 1568,
      "❎": 1569,
      "❓": 1570,
      "❔": 1571,
      "❖": 1572,
      "❗": 1573,
      "❝": 1574,
      "❣": 1575,
      "❤": 1576,
      "❥": 1577,
      "❦": 1578,
      "❶": 1579,
      "❷": 1580,
      "❸": 1581,
      "❹": 1582,
      "❺": 1583,
      "❻": 1584,
      "➊": 1585,
      "➋": 1586,
      "➕": 1587,
      "➖": 1588,
      "➘": 1589,
      "➚": 1590,
      "➟": 1591,
      "➠": 1592,
      "➡": 1593,
      "➢": 1594,
      "➣": 1595,
      "➤": 1596,
      "➥": 1597,
      "➦": 1598,
      "➧": 1599,
      "➨": 1600,
      "➩": 1601,
      "➪": 1602,
      "➫": 1603,
      "➭": 1604,
      "➲": 1605,
      "➵": 1606,
      "➽": 1607,
      "⟵": 1608,
      "⟶": 1609,
      "⠀": 1610,
      "⤭": 1611,
      "⤵": 1612,
      "⤷": 1613,
      "⦁": 1614,
      "⦾": 1615,
      "⦿": 1616,
      "⧭": 1617,
      "⬅": 1618,
      "⬢": 1619,
      "⬤": 1620,
      "⭐": 1621,
      "⭕": 1622,
      "ⱳ": 1623,
      "ⲏ": 1624,
      "ⲣ": 1625,
      "、": 1626,
      "。": 1627,
      "《": 1628,
      "》": 1629,
      "「": 1630,
      "」": 1631,
      "【": 1632,
      "】": 1633,
      "〒": 1634,
      "〜": 1635,
      "〰": 1636,
      "あ": 1637,
      "い": 1638,
      "う": 1639,
      "え": 1640,
      "お": 1641,
      "か": 1642,
      "が": 1643,
      "き": 1644,
      "ぎ": 1645,
      "く": 1646,
      "ぐ": 1647,
      "け": 1648,
      "こ": 1649,
      "ご": 1650,
      "さ": 1651,
      "ざ": 1652,
      "し": 1653,
      "す": 1654,
      "せ": 1655,
      "ぜ": 1656,
      "そ": 1657,
      "た": 1658,
      "ち": 1659,
      "っ": 1660,
      "つ": 1661,
      "て": 1662,
      "で": 1663,
      "と": 1664,
      "ど": 1665,
      "な": 1666,
      "に": 1667,
      "ぬ": 1668,
      "ね": 1669,
      "の": 1670,
      "は": 1671,
      "ひ": 1672,
      "ふ": 1673,
      "へ": 1674,
      "べ": 1675,
      "ほ": 1676,
      "ま": 1677,
      "み": 1678,
      "む": 1679,
      "め": 1680,
      "も": 1681,
      "ゃ": 1682,
      "や": 1683,
      "ゅ": 1684,
      "ゆ": 1685,
      "ょ": 1686,
      "よ": 1687,
      "ら": 1688,
      "り": 1689,
      "る": 1690,
      "れ": 1691,
      "ろ": 1692,
      "わ": 1693,
      "を": 1694,
      "ん": 1695,
      "ア": 1696,
      "ィ": 1697,
      "イ": 1698,
      "ウ": 1699,
      "ェ": 1700,
      "エ": 1701,
      "オ": 1702,
      "カ": 1703,
      "キ": 1704,
      "ク": 1705,
      "グ": 1706,
      "サ": 1707,
      "ザ": 1708,
      "シ": 1709,
      "ジ": 1710,
      "ス": 1711,
      "ズ": 1712,
      "セ": 1713,
      "ソ": 1714,
      "ゾ": 1715,
      "タ": 1716,
      "チ": 1717,
      "ッ": 1718,
      "ツ": 1719,
      "ヅ": 1720,
      "テ": 1721,
      "デ": 1722,
      "ト": 1723,
      "ド": 1724,
      "ナ": 1725,
      "ニ": 1726,
      "ノ": 1727,
      "ハ": 1728,
      "バ": 1729,
      "パ": 1730,
      "ヒ": 1731,
      "ビ": 1732,
      "ピ": 1733,
      "フ": 1734,
      "ブ": 1735,
      "プ": 1736,
      "ポ": 1737,
      "マ": 1738,
      "ミ": 1739,
      "ム": 1740,
      "メ": 1741,
      "モ": 1742,
      "ャ": 1743,
      "ヤ": 1744,
      "ュ": 1745,
      "ユ": 1746,
      "ヨ": 1747,
      "ラ": 1748,
      "リ": 1749,
      "ル": 1750,
      "レ": 1751,
      "ロ": 1752,
      "ワ": 1753,
      "ン": 1754,
      "ヶ": 1755,
      "・": 1756,
      "ー": 1757,
      "ㄩ": 1758,
      "ㄱ": 1759,
      "ㄲ": 1760,
      "ㄳ": 1761,
      "ㄴ": 1762,
      "ㄵ": 1763,
      "ㄶ": 1764,
      "ㄷ": 1765,
      "ㄸ": 1766,
      "ㄹ": 1767,
      "ㄺ": 1768,
      "ㄻ": 1769,
      "ㄼ": 1770,
      "ㄽ": 1771,
      "ㄾ": 1772,
      "ㄿ": 1773,
      "ㅀ": 1774,
      "ㅂ": 1775,
      "ㅃ": 1776,
      "ㅄ": 1777,
      "ㅅ": 1778,
      "ㅆ": 1779,
      "ㅇ": 1780,
      "ㅈ": 1781,
      "ㅉ": 1782,
      "ㅊ": 1783,
      "ㅋ": 1784,
      "ㅌ": 1785,
      "ㅍ": 1786,
      "ㅎ": 1787,
      "ㅏ": 1788,
      "ㅐ": 1789,
      "ㅗ": 1790,
      "ㅚ": 1791,
      "ㅜ": 1792,
      "ㅝ": 1793,
      "ㅣ": 1794,
      "㎡": 1795,
      "㕦": 1796,
      "㸴": 1797,
      "䭏": 1798,
      "一": 1799,
      "丁": 1800,
      "丂": 1801,
      "七": 1802,
      "三": 1803,
      "上": 1804,
      "下": 1805,
      "不": 1806,
      "与": 1807,
      "世": 1808,
      "丝": 1809,
      "个": 1810,
      "中": 1811,
      "丸": 1812,
      "丹": 1813,
      "主": 1814,
      "乃": 1815,
      "久": 1816,
      "乇": 1817,
      "之": 1818,
      "乎": 1819,
      "乐": 1820,
      "乙": 1821,
      "九": 1822,
      "也": 1823,
      "书": 1824,
      "乭": 1825,
      "乾": 1826,
      "事": 1827,
      "二": 1828,
      "亓": 1829,
      "五": 1830,
      "井": 1831,
      "交": 1832,
      "亦": 1833,
      "京": 1834,
      "人": 1835,
      "仁": 1836,
      "今": 1837,
      "介": 1838,
      "仏": 1839,
      "仔": 1840,
      "他": 1841,
      "代": 1842,
      "令": 1843,
      "仲": 1844,
      "任": 1845,
      "伊": 1846,
      "伎": 1847,
      "伐": 1848,
      "会": 1849,
      "传": 1850,
      "伦": 1851,
      "伯": 1852,
      "伽": 1853,
      "但": 1854,
      "位": 1855,
      "住": 1856,
      "佐": 1857,
      "体": 1858,
      "何": 1859,
      "佚": 1860,
      "佛": 1861,
      "作": 1862,
      "你": 1863,
      "佼": 1864,
      "使": 1865,
      "侍": 1866,
      "侠": 1867,
      "侯": 1868,
      "俗": 1869,
      "保": 1870,
      "信": 1871,
      "倒": 1872,
      "倻": 1873,
      "值": 1874,
      "健": 1875,
      "催": 1876,
      "傳": 1877,
      "像": 1878,
      "僕": 1879,
      "僧": 1880,
      "儀": 1881,
      "億": 1882,
      "儒": 1883,
      "優": 1884,
      "儿": 1885,
      "兀": 1886,
      "元": 1887,
      "兄": 1888,
      "光": 1889,
      "克": 1890,
      "兒": 1891,
      "入": 1892,
      "內": 1893,
      "全": 1894,
      "八": 1895,
      "公": 1896,
      "六": 1897,
      "兮": 1898,
      "兰": 1899,
      "共": 1900,
      "兵": 1901,
      "典": 1902,
      "内": 1903,
      "円": 1904,
      "军": 1905,
      "冠": 1906,
      "冷": 1907,
      "出": 1908,
      "击": 1909,
      "刀": 1910,
      "分": 1911,
      "刑": 1912,
      "列": 1913,
      "刘": 1914,
      "判": 1915,
      "別": 1916,
      "利": 1917,
      "制": 1918,
      "刷": 1919,
      "刻": 1920,
      "則": 1921,
      "剌": 1922,
      "前": 1923,
      "剩": 1924,
      "劉": 1925,
      "劍": 1926,
      "力": 1927,
      "功": 1928,
      "加": 1929,
      "动": 1930,
      "助": 1931,
      "勅": 1932,
      "動": 1933,
      "務": 1934,
      "勝": 1935,
      "勤": 1936,
      "勿": 1937,
      "包": 1938,
      "化": 1939,
      "北": 1940,
      "匜": 1941,
      "医": 1942,
      "區": 1943,
      "十": 1944,
      "千": 1945,
      "午": 1946,
      "半": 1947,
      "华": 1948,
      "卒": 1949,
      "協": 1950,
      "南": 1951,
      "博": 1952,
      "卜": 1953,
      "卡": 1954,
      "卮": 1955,
      "印": 1956,
      "卷": 1957,
      "压": 1958,
      "原": 1959,
      "厩": 1960,
      "县": 1961,
      "参": 1962,
      "參": 1963,
      "又": 1964,
      "及": 1965,
      "友": 1966,
      "反": 1967,
      "口": 1968,
      "古": 1969,
      "句": 1970,
      "只": 1971,
      "可": 1972,
      "台": 1973,
      "史": 1974,
      "右": 1975,
      "号": 1976,
      "合": 1977,
      "吉": 1978,
      "同": 1979,
      "名": 1980,
      "后": 1981,
      "吏": 1982,
      "吗": 1983,
      "君": 1984,
      "含": 1985,
      "周": 1986,
      "味": 1987,
      "呼": 1988,
      "命": 1989,
      "和": 1990,
      "咒": 1991,
      "咸": 1992,
      "哀": 1993,
      "品": 1994,
      "哈": 1995,
      "哛": 1996,
      "員": 1997,
      "哥": 1998,
      "哭": 1999,
      "唐": 2000,
      "唤": 2001,
      "商": 2002,
      "問": 2003,
      "啓": 2004,
      "善": 2005,
      "営": 2006,
      "嘉": 2007,
      "器": 2008,
      "四": 2009,
      "回": 2010,
      "団": 2011,
      "国": 2012,
      "國": 2013,
      "園": 2014,
      "圓": 2015,
      "圖": 2016,
      "土": 2017,
      "在": 2018,
      "地": 2019,
      "均": 2020,
      "坡": 2021,
      "城": 2022,
      "埔": 2023,
      "域": 2024,
      "基": 2025,
      "堂": 2026,
      "報": 2027,
      "場": 2028,
      "塔": 2029,
      "塚": 2030,
      "塩": 2031,
      "墟": 2032,
      "墨": 2033,
      "壁": 2034,
      "壠": 2035,
      "士": 2036,
      "壬": 2037,
      "売": 2038,
      "壺": 2039,
      "壽": 2040,
      "夏": 2041,
      "外": 2042,
      "夜": 2043,
      "大": 2044,
      "天": 2045,
      "太": 2046,
      "夫": 2047,
      "失": 2048,
      "夻": 2049,
      "奇": 2050,
      "奎": 2051,
      "奚": 2052,
      "女": 2053,
      "好": 2054,
      "如": 2055,
      "妇": 2056,
      "妹": 2057,
      "姊": 2058,
      "姓": 2059,
      "委": 2060,
      "姣": 2061,
      "娃": 2062,
      "婦": 2063,
      "媛": 2064,
      "媤": 2065,
      "媽": 2066,
      "嬪": 2067,
      "子": 2068,
      "孔": 2069,
      "字": 2070,
      "存": 2071,
      "孛": 2072,
      "孝": 2073,
      "学": 2074,
      "學": 2075,
      "宁": 2076,
      "安": 2077,
      "宋": 2078,
      "完": 2079,
      "宗": 2080,
      "官": 2081,
      "定": 2082,
      "宝": 2083,
      "客": 2084,
      "宮": 2085,
      "宰": 2086,
      "害": 2087,
      "宵": 2088,
      "家": 2089,
      "容": 2090,
      "宽": 2091,
      "宿": 2092,
      "寄": 2093,
      "寅": 2094,
      "密": 2095,
      "富": 2096,
      "寢": 2097,
      "實": 2098,
      "寧": 2099,
      "寶": 2100,
      "寺": 2101,
      "対": 2102,
      "専": 2103,
      "将": 2104,
      "尊": 2105,
      "小": 2106,
      "少": 2107,
      "尔": 2108,
      "尙": 2109,
      "就": 2110,
      "尺": 2111,
      "尼": 2112,
      "局": 2113,
      "居": 2114,
      "屋": 2115,
      "履": 2116,
      "山": 2117,
      "岡": 2118,
      "岩": 2119,
      "岸": 2120,
      "峡": 2121,
      "島": 2122,
      "峻": 2123,
      "崇": 2124,
      "崎": 2125,
      "崔": 2126,
      "嶽": 2127,
      "川": 2128,
      "州": 2129,
      "工": 2130,
      "左": 2131,
      "巭": 2132,
      "巳": 2133,
      "巴": 2134,
      "巵": 2135,
      "市": 2136,
      "布": 2137,
      "希": 2138,
      "帖": 2139,
      "帝": 2140,
      "師": 2141,
      "帮": 2142,
      "帯": 2143,
      "帶": 2144,
      "常": 2145,
      "帽": 2146,
      "幣": 2147,
      "干": 2148,
      "平": 2149,
      "年": 2150,
      "并": 2151,
      "幸": 2152,
      "幹": 2153,
      "广": 2154,
      "広": 2155,
      "应": 2156,
      "府": 2157,
      "度": 2158,
      "庫": 2159,
      "康": 2160,
      "廣": 2161,
      "廳": 2162,
      "廷": 2163,
      "建": 2164,
      "开": 2165,
      "式": 2166,
      "弓": 2167,
      "弔": 2168,
      "弗": 2169,
      "弘": 2170,
      "弟": 2171,
      "張": 2172,
      "強": 2173,
      "彝": 2174,
      "形": 2175,
      "彦": 2176,
      "後": 2177,
      "徐": 2178,
      "從": 2179,
      "御": 2180,
      "徳": 2181,
      "徵": 2182,
      "德": 2183,
      "心": 2184,
      "必": 2185,
      "忉": 2186,
      "忒": 2187,
      "志": 2188,
      "忙": 2189,
      "応": 2190,
      "忠": 2191,
      "快": 2192,
      "念": 2193,
      "忽": 2194,
      "怎": 2195,
      "性": 2196,
      "怾": 2197,
      "息": 2198,
      "恵": 2199,
      "情": 2200,
      "愚": 2201,
      "愛": 2202,
      "感": 2203,
      "慕": 2204,
      "慧": 2205,
      "慶": 2206,
      "應": 2207,
      "懶": 2208,
      "戌": 2209,
      "成": 2210,
      "我": 2211,
      "戶": 2212,
      "房": 2213,
      "所": 2214,
      "手": 2215,
      "扶": 2216,
      "技": 2217,
      "投": 2218,
      "拉": 2219,
      "按": 2220,
      "捕": 2221,
      "推": 2222,
      "提": 2223,
      "換": 2224,
      "摘": 2225,
      "摠": 2226,
      "摩": 2227,
      "撒": 2228,
      "撓": 2229,
      "播": 2230,
      "撮": 2231,
      "支": 2232,
      "改": 2233,
      "攻": 2234,
      "放": 2235,
      "政": 2236,
      "敖": 2237,
      "教": 2238,
      "敦": 2239,
      "数": 2240,
      "整": 2241,
      "文": 2242,
      "斗": 2243,
      "料": 2244,
      "斛": 2245,
      "斝": 2246,
      "斤": 2247,
      "斫": 2248,
      "斯": 2249,
      "新": 2250,
      "斷": 2251,
      "方": 2252,
      "施": 2253,
      "族": 2254,
      "旗": 2255,
      "日": 2256,
      "旭": 2257,
      "旽": 2258,
      "昇": 2259,
      "昌": 2260,
      "明": 2261,
      "易": 2262,
      "星": 2263,
      "映": 2264,
      "春": 2265,
      "昭": 2266,
      "時": 2267,
      "晉": 2268,
      "晓": 2269,
      "普": 2270,
      "景": 2271,
      "智": 2272,
      "暴": 2273,
      "曜": 2274,
      "更": 2275,
      "書": 2276,
      "曹": 2277,
      "曺": 2278,
      "曼": 2279,
      "會": 2280,
      "月": 2281,
      "朗": 2282,
      "望": 2283,
      "朝": 2284,
      "期": 2285,
      "木": 2286,
      "未": 2287,
      "本": 2288,
      "札": 2289,
      "朱": 2290,
      "朴": 2291,
      "杂": 2292,
      "杉": 2293,
      "李": 2294,
      "材": 2295,
      "村": 2296,
      "杜": 2297,
      "来": 2298,
      "杭": 2299,
      "東": 2300,
      "松": 2301,
      "柯": 2302,
      "柱": 2303,
      "柳": 2304,
      "柴": 2305,
      "校": 2306,
      "株": 2307,
      "格": 2308,
      "桜": 2309,
      "梅": 2310,
      "梔": 2311,
      "條": 2312,
      "梦": 2313,
      "棟": 2314,
      "森": 2315,
      "椧": 2316,
      "楊": 2317,
      "業": 2318,
      "楯": 2319,
      "極": 2320,
      "榮": 2321,
      "樓": 2322,
      "樣": 2323,
      "樹": 2324,
      "樽": 2325,
      "櫛": 2326,
      "欌": 2327,
      "歌": 2328,
      "止": 2329,
      "正": 2330,
      "武": 2331,
      "歴": 2332,
      "死": 2333,
      "殊": 2334,
      "段": 2335,
      "殷": 2336,
      "殿": 2337,
      "毒": 2338,
      "比": 2339,
      "氏": 2340,
      "民": 2341,
      "气": 2342,
      "氣": 2343,
      "水": 2344,
      "汗": 2345,
      "汝": 2346,
      "決": 2347,
      "沖": 2348,
      "沙": 2349,
      "没": 2350,
      "河": 2351,
      "沸": 2352,
      "油": 2353,
      "治": 2354,
      "沿": 2355,
      "泉": 2356,
      "法": 2357,
      "波": 2358,
      "泣": 2359,
      "泰": 2360,
      "洋": 2361,
      "洗": 2362,
      "洛": 2363,
      "津": 2364,
      "洪": 2365,
      "活": 2366,
      "流": 2367,
      "浄": 2368,
      "浚": 2369,
      "浪": 2370,
      "浴": 2371,
      "海": 2372,
      "消": 2373,
      "涉": 2374,
      "淑": 2375,
      "淨": 2376,
      "淵": 2377,
      "混": 2378,
      "淸": 2379,
      "清": 2380,
      "渤": 2381,
      "港": 2382,
      "湖": 2383,
      "溟": 2384,
      "溪": 2385,
      "满": 2386,
      "滿": 2387,
      "漆": 2388,
      "漏": 2389,
      "漢": 2390,
      "潜": 2391,
      "澳": 2392,
      "濟": 2393,
      "濬": 2394,
      "瀨": 2395,
      "灣": 2396,
      "火": 2397,
      "灵": 2398,
      "炯": 2399,
      "点": 2400,
      "為": 2401,
      "烈": 2402,
      "烏": 2403,
      "烧": 2404,
      "無": 2405,
      "照": 2406,
      "熊": 2407,
      "燈": 2408,
      "燕": 2409,
      "營": 2410,
      "燭": 2411,
      "爐": 2412,
      "爱": 2413,
      "爲": 2414,
      "爵": 2415,
      "父": 2416,
      "版": 2417,
      "牛": 2418,
      "牡": 2419,
      "物": 2420,
      "特": 2421,
      "犬": 2422,
      "犯": 2423,
      "狂": 2424,
      "狄": 2425,
      "狗": 2426,
      "独": 2427,
      "猫": 2428,
      "猴": 2429,
      "獨": 2430,
      "獻": 2431,
      "玄": 2432,
      "玉": 2433,
      "王": 2434,
      "珊": 2435,
      "珍": 2436,
      "現": 2437,
      "理": 2438,
      "琛": 2439,
      "琮": 2440,
      "琴": 2441,
      "琵": 2442,
      "琶": 2443,
      "瑚": 2444,
      "瑞": 2445,
      "瑟": 2446,
      "璜": 2447,
      "瓜": 2448,
      "瓮": 2449,
      "瓶": 2450,
      "甄": 2451,
      "甕": 2452,
      "生": 2453,
      "甦": 2454,
      "用": 2455,
      "甫": 2456,
      "田": 2457,
      "由": 2458,
      "甲": 2459,
      "申": 2460,
      "电": 2461,
      "男": 2462,
      "画": 2463,
      "畓": 2464,
      "留": 2465,
      "略": 2466,
      "番": 2467,
      "畫": 2468,
      "異": 2469,
      "痛": 2470,
      "発": 2471,
      "白": 2472,
      "百": 2473,
      "的": 2474,
      "皇": 2475,
      "皮": 2476,
      "盛": 2477,
      "盜": 2478,
      "監": 2479,
      "盤": 2480,
      "盧": 2481,
      "直": 2482,
      "省": 2483,
      "看": 2484,
      "県": 2485,
      "眞": 2486,
      "真": 2487,
      "督": 2488,
      "知": 2489,
      "矩": 2490,
      "石": 2491,
      "研": 2492,
      "碑": 2493,
      "碧": 2494,
      "礼": 2495,
      "社": 2496,
      "祖": 2497,
      "神": 2498,
      "祭": 2499,
      "祿": 2500,
      "禁": 2501,
      "禅": 2502,
      "禍": 2503,
      "福": 2504,
      "禮": 2505,
      "禹": 2506,
      "离": 2507,
      "秋": 2508,
      "科": 2509,
      "租": 2510,
      "秦": 2511,
      "称": 2512,
      "税": 2513,
      "稙": 2514,
      "積": 2515,
      "究": 2516,
      "窓": 2517,
      "立": 2518,
      "站": 2519,
      "章": 2520,
      "符": 2521,
      "第": 2522,
      "筆": 2523,
      "等": 2524,
      "筑": 2525,
      "答": 2526,
      "简": 2527,
      "管": 2528,
      "節": 2529,
      "範": 2530,
      "篇": 2531,
      "篠": 2532,
      "籠": 2533,
      "米": 2534,
      "精": 2535,
      "紀": 2536,
      "約": 2537,
      "紅": 2538,
      "紗": 2539,
      "素": 2540,
      "紫": 2541,
      "経": 2542,
      "統": 2543,
      "絵": 2544,
      "經": 2545,
      "継": 2546,
      "維": 2547,
      "練": 2548,
      "縣": 2549,
      "總": 2550,
      "繁": 2551,
      "繼": 2552,
      "纯": 2553,
      "络": 2554,
      "维": 2555,
      "缶": 2556,
      "网": 2557,
      "罗": 2558,
      "羅": 2559,
      "羊": 2560,
      "美": 2561,
      "義": 2562,
      "翁": 2563,
      "習": 2564,
      "老": 2565,
      "考": 2566,
      "者": 2567,
      "耕": 2568,
      "耳": 2569,
      "耶": 2570,
      "聖": 2571,
      "聚": 2572,
      "職": 2573,
      "肖": 2574,
      "肯": 2575,
      "育": 2576,
      "胄": 2577,
      "背": 2578,
      "胡": 2579,
      "能": 2580,
      "膳": 2581,
      "臘": 2582,
      "臣": 2583,
      "臨": 2584,
      "自": 2585,
      "致": 2586,
      "臺": 2587,
      "與": 2588,
      "興": 2589,
      "舊": 2590,
      "舍": 2591,
      "舎": 2592,
      "舗": 2593,
      "舞": 2594,
      "舟": 2595,
      "良": 2596,
      "色": 2597,
      "艺": 2598,
      "艾": 2599,
      "节": 2600,
      "花": 2601,
      "芸": 2602,
      "英": 2603,
      "茂": 2604,
      "荇": 2605,
      "荷": 2606,
      "莎": 2607,
      "莫": 2608,
      "萬": 2609,
      "萱": 2610,
      "落": 2611,
      "葉": 2612,
      "葡": 2613,
      "蒙": 2614,
      "蒼": 2615,
      "蓋": 2616,
      "蔵": 2617,
      "蕃": 2618,
      "蕩": 2619,
      "薦": 2620,
      "薬": 2621,
      "薰": 2622,
      "藏": 2623,
      "藻": 2624,
      "蘭": 2625,
      "處": 2626,
      "號": 2627,
      "蜜": 2628,
      "血": 2629,
      "衆": 2630,
      "行": 2631,
      "術": 2632,
      "衡": 2633,
      "表": 2634,
      "被": 2635,
      "裔": 2636,
      "裵": 2637,
      "製": 2638,
      "襆": 2639,
      "西": 2640,
      "要": 2641,
      "視": 2642,
      "親": 2643,
      "觀": 2644,
      "视": 2645,
      "解": 2646,
      "觥": 2647,
      "訓": 2648,
      "記": 2649,
      "訣": 2650,
      "訥": 2651,
      "許": 2652,
      "証": 2653,
      "詔": 2654,
      "詰": 2655,
      "話": 2656,
      "詳": 2657,
      "誓": 2658,
      "誕": 2659,
      "語": 2660,
      "誠": 2661,
      "誡": 2662,
      "說": 2663,
      "課": 2664,
      "調": 2665,
      "談": 2666,
      "請": 2667,
      "論": 2668,
      "諸": 2669,
      "謂": 2670,
      "謙": 2671,
      "謝": 2672,
      "識": 2673,
      "譜": 2674,
      "警": 2675,
      "議": 2676,
      "讀": 2677,
      "變": 2678,
      "议": 2679,
      "语": 2680,
      "说": 2681,
      "诶": 2682,
      "诸": 2683,
      "读": 2684,
      "谢": 2685,
      "谷": 2686,
      "豆": 2687,
      "豪": 2688,
      "豬": 2689,
      "貞": 2690,
      "貨": 2691,
      "販": 2692,
      "責": 2693,
      "資": 2694,
      "賢": 2695,
      "質": 2696,
      "贊": 2697,
      "贝": 2698,
      "贞": 2699,
      "贤": 2700,
      "货": 2701,
      "贼": 2702,
      "赤": 2703,
      "赫": 2704,
      "走": 2705,
      "起": 2706,
      "趙": 2707,
      "足": 2708,
      "跡": 2709,
      "路": 2710,
      "身": 2711,
      "軍": 2712,
      "軾": 2713,
      "轄": 2714,
      "轍": 2715,
      "辛": 2716,
      "辦": 2717,
      "込": 2718,
      "运": 2719,
      "连": 2720,
      "迦": 2721,
      "迷": 2722,
      "追": 2723,
      "退": 2724,
      "送": 2725,
      "通": 2726,
      "速": 2727,
      "造": 2728,
      "連": 2729,
      "遊": 2730,
      "運": 2731,
      "道": 2732,
      "遺": 2733,
      "遼": 2734,
      "邑": 2735,
      "那": 2736,
      "邦": 2737,
      "邯": 2738,
      "郞": 2739,
      "郡": 2740,
      "部": 2741,
      "都": 2742,
      "鄒": 2743,
      "鄕": 2744,
      "酒": 2745,
      "醫": 2746,
      "釋": 2747,
      "里": 2748,
      "重": 2749,
      "野": 2750,
      "金": 2751,
      "針": 2752,
      "鈴": 2753,
      "鈸": 2754,
      "鉏": 2755,
      "銅": 2756,
      "鋪": 2757,
      "錢": 2758,
      "錦": 2759,
      "鎧": 2760,
      "鎭": 2761,
      "鎮": 2762,
      "鐃": 2763,
      "鐏": 2764,
      "鐵": 2765,
      "鑑": 2766,
      "鑒": 2767,
      "鑪": 2768,
      "钁": 2769,
      "铜": 2770,
      "铺": 2771,
      "長": 2772,
      "門": 2773,
      "閉": 2774,
      "開": 2775,
      "閑": 2776,
      "間": 2777,
      "閔": 2778,
      "閣": 2779,
      "閱": 2780,
      "閼": 2781,
      "關": 2782,
      "门": 2783,
      "间": 2784,
      "阁": 2785,
      "阅": 2786,
      "阪": 2787,
      "阮": 2788,
      "防": 2789,
      "阿": 2790,
      "陆": 2791,
      "陈": 2792,
      "降": 2793,
      "限": 2794,
      "陛": 2795,
      "院": 2796,
      "陪": 2797,
      "陳": 2798,
      "陵": 2799,
      "陽": 2800,
      "隆": 2801,
      "雁": 2802,
      "雄": 2803,
      "雅": 2804,
      "雑": 2805,
      "雙": 2806,
      "離": 2807,
      "難": 2808,
      "雨": 2809,
      "雪": 2810,
      "雲": 2811,
      "零": 2812,
      "震": 2813,
      "靈": 2814,
      "青": 2815,
      "靜": 2816,
      "靺": 2817,
      "鞨": 2818,
      "韓": 2819,
      "音": 2820,
      "順": 2821,
      "頉": 2822,
      "領": 2823,
      "頭": 2824,
      "顏": 2825,
      "顔": 2826,
      "願": 2827,
      "類": 2828,
      "顯": 2829,
      "風": 2830,
      "食": 2831,
      "餘": 2832,
      "館": 2833,
      "饺": 2834,
      "香": 2835,
      "馬": 2836,
      "駆": 2837,
      "駉": 2838,
      "駕": 2839,
      "驪": 2840,
      "骨": 2841,
      "體": 2842,
      "高": 2843,
      "髮": 2844,
      "鬲": 2845,
      "魏": 2846,
      "魯": 2847,
      "鮮": 2848,
      "鯉": 2849,
      "鸡": 2850,
      "麗": 2851,
      "麻": 2852,
      "麼": 2853,
      "黃": 2854,
      "鼎": 2855,
      "齊": 2856,
      "龍": 2857,
      "ꜜ": 2858,
      "ꜣ": 2859,
      "ꜥ": 2860,
      "가": 2861,
      "각": 2862,
      "간": 2863,
      "감": 2864,
      "갑": 2865,
      "강": 2866,
      "개": 2867,
      "갱": 2868,
      "거": 2869,
      "건": 2870,
      "검": 2871,
      "게": 2872,
      "견": 2873,
      "결": 2874,
      "겸": 2875,
      "경": 2876,
      "계": 2877,
      "고": 2878,
      "곡": 2879,
      "골": 2880,
      "곰": 2881,
      "공": 2882,
      "과": 2883,
      "곽": 2884,
      "관": 2885,
      "광": 2886,
      "교": 2887,
      "구": 2888,
      "국": 2889,
      "군": 2890,
      "굴": 2891,
      "궁": 2892,
      "권": 2893,
      "귀": 2894,
      "규": 2895,
      "균": 2896,
      "그": 2897,
      "근": 2898,
      "글": 2899,
      "금": 2900,
      "급": 2901,
      "기": 2902,
      "길": 2903,
      "김": 2904,
      "까": 2905,
      "꾼": 2906,
      "꿈": 2907,
      "나": 2908,
      "낙": 2909,
      "날": 2910,
      "남": 2911,
      "낳": 2912,
      "내": 2913,
      "넟": 2914,
      "네": 2915,
      "녀": 2916,
      "년": 2917,
      "녕": 2918,
      "노": 2919,
      "녹": 2920,
      "논": 2921,
      "놓": 2922,
      "누": 2923,
      "뉘": 2924,
      "는": 2925,
      "늦": 2926,
      "늬": 2927,
      "다": 2928,
      "단": 2929,
      "달": 2930,
      "담": 2931,
      "답": 2932,
      "당": 2933,
      "대": 2934,
      "덕": 2935,
      "데": 2936,
      "뎌": 2937,
      "도": 2938,
      "돈": 2939,
      "동": 2940,
      "두": 2941,
      "뒤": 2942,
      "드": 2943,
      "득": 2944,
      "들": 2945,
      "등": 2946,
      "디": 2947,
      "딸": 2948,
      "라": 2949,
      "락": 2950,
      "란": 2951,
      "람": 2952,
      "랑": 2953,
      "래": 2954,
      "략": 2955,
      "량": 2956,
      "러": 2957,
      "려": 2958,
      "령": 2959,
      "로": 2960,
      "록": 2961,
      "론": 2962,
      "롱": 2963,
      "루": 2964,
      "류": 2965,
      "륜": 2966,
      "륭": 2967,
      "르": 2968,
      "를": 2969,
      "름": 2970,
      "릉": 2971,
      "리": 2972,
      "릴": 2973,
      "림": 2974,
      "링": 2975,
      "마": 2976,
      "막": 2977,
      "만": 2978,
      "말": 2979,
      "명": 2980,
      "모": 2981,
      "목": 2982,
      "몽": 2983,
      "무": 2984,
      "묵": 2985,
      "문": 2986,
      "물": 2987,
      "미": 2988,
      "민": 2989,
      "밀": 2990,
      "바": 2991,
      "박": 2992,
      "반": 2993,
      "발": 2994,
      "방": 2995,
      "배": 2996,
      "백": 2997,
      "벌": 2998,
      "범": 2999,
      "법": 3000,
      "변": 3001,
      "병": 3002,
      "보": 3003,
      "복": 3004,
      "본": 3005,
      "봉": 3006,
      "부": 3007,
      "북": 3008,
      "불": 3009,
      "붉": 3010,
      "블": 3011,
      "븕": 3012,
      "비": 3013,
      "빈": 3014,
      "빗": 3015,
      "빛": 3016,
      "뿐": 3017,
      "사": 3018,
      "산": 3019,
      "살": 3020,
      "삼": 3021,
      "상": 3022,
      "색": 3023,
      "생": 3024,
      "서": 3025,
      "석": 3026,
      "선": 3027,
      "섯": 3028,
      "성": 3029,
      "세": 3030,
      "셔": 3031,
      "소": 3032,
      "속": 3033,
      "손": 3034,
      "솔": 3035,
      "송": 3036,
      "쇄": 3037,
      "수": 3038,
      "숙": 3039,
      "순": 3040,
      "술": 3041,
      "숭": 3042,
      "쉬": 3043,
      "스": 3044,
      "슬": 3045,
      "승": 3046,
      "시": 3047,
      "식": 3048,
      "신": 3049,
      "실": 3050,
      "심": 3051,
      "십": 3052,
      "쌍": 3053,
      "쌔": 3054,
      "쓰": 3055,
      "씨": 3056,
      "아": 3057,
      "악": 3058,
      "안": 3059,
      "알": 3060,
      "암": 3061,
      "애": 3062,
      "야": 3063,
      "약": 3064,
      "양": 3065,
      "어": 3066,
      "얼": 3067,
      "에": 3068,
      "여": 3069,
      "역": 3070,
      "연": 3071,
      "열": 3072,
      "영": 3073,
      "예": 3074,
      "오": 3075,
      "옥": 3076,
      "옹": 3077,
      "와": 3078,
      "완": 3079,
      "왕": 3080,
      "요": 3081,
      "용": 3082,
      "우": 3083,
      "욱": 3084,
      "운": 3085,
      "울": 3086,
      "웃": 3087,
      "웅": 3088,
      "원": 3089,
      "월": 3090,
      "위": 3091,
      "유": 3092,
      "육": 3093,
      "윤": 3094,
      "융": 3095,
      "으": 3096,
      "은": 3097,
      "을": 3098,
      "음": 3099,
      "읍": 3100,
      "응": 3101,
      "읓": 3102,
      "의": 3103,
      "이": 3104,
      "익": 3105,
      "인": 3106,
      "일": 3107,
      "임": 3108,
      "있": 3109,
      "잉": 3110,
      "자": 3111,
      "작": 3112,
      "잔": 3113,
      "잘": 3114,
      "잡": 3115,
      "장": 3116,
      "재": 3117,
      "저": 3118,
      "전": 3119,
      "정": 3120,
      "제": 3121,
      "졌": 3122,
      "조": 3123,
      "족": 3124,
      "좀": 3125,
      "종": 3126,
      "좋": 3127,
      "좌": 3128,
      "주": 3129,
      "죽": 3130,
      "준": 3131,
      "줄": 3132,
      "중": 3133,
      "즐": 3134,
      "지": 3135,
      "직": 3136,
      "진": 3137,
      "집": 3138,
      "차": 3139,
      "찬": 3140,
      "찰": 3141,
      "참": 3142,
      "창": 3143,
      "천": 3144,
      "청": 3145,
      "초": 3146,
      "촌": 3147,
      "총": 3148,
      "촬": 3149,
      "최": 3150,
      "추": 3151,
      "춘": 3152,
      "충": 3153,
      "취": 3154,
      "치": 3155,
      "친": 3156,
      "침": 3157,
      "카": 3158,
      "캐": 3159,
      "크": 3160,
      "큰": 3161,
      "타": 3162,
      "탄": 3163,
      "탈": 3164,
      "탕": 3165,
      "태": 3166,
      "텔": 3167,
      "토": 3168,
      "통": 3169,
      "파": 3170,
      "판": 3171,
      "팔": 3172,
      "편": 3173,
      "평": 3174,
      "폐": 3175,
      "포": 3176,
      "표": 3177,
      "품": 3178,
      "필": 3179,
      "하": 3180,
      "학": 3181,
      "한": 3182,
      "할": 3183,
      "함": 3184,
      "항": 3185,
      "해": 3186,
      "했": 3187,
      "행": 3188,
      "향": 3189,
      "허": 3190,
      "헌": 3191,
      "혀": 3192,
      "혁": 3193,
      "현": 3194,
      "형": 3195,
      "혜": 3196,
      "호": 3197,
      "혼": 3198,
      "홍": 3199,
      "화": 3200,
      "환": 3201,
      "황": 3202,
      "회": 3203,
      "효": 3204,
      "후": 3205,
      "훈": 3206,
      "훤": 3207,
      "흥": 3208,
      "희": 3209,
      "樂": 3210,
      "洛": 3211,
      "落": 3212,
      "廊": 3213,
      "路": 3214,
      "勒": 3215,
      "力": 3216,
      "曆": 3217,
      "ﬀ": 3218,
      "﴿": 3219,
      "ﷺ": 3220,
      "️": 3221,
      "﹌": 3222,
      "ﺎ": 3223,
      "ﻟ": 3224,
      "ﻨ": 3225,
      "ﻬ": 3226,
      "ﻲ": 3227,
      "！": 3228,
      "（": 3229,
      "）": 3230,
      "＊": 3231,
      "，": 3232,
      "－": 3233,
      "．": 3234,
      "０": 3235,
      "１": 3236,
      "２": 3237,
      "４": 3238,
      "５": 3239,
      "６": 3240,
      "７": 3241,
      "８": 3242,
      "９": 3243,
      "：": 3244,
      "？": 3245,
      "ａ": 3246,
      "ｂ": 3247,
      "ｃ": 3248,
      "ｄ": 3249,
      "ｅ": 3250,
      "ｆ": 3251,
      "ｇ": 3252,
      "ｈ": 3253,
      "ｉ": 3254,
      "ｊ": 3255,
      "ｋ": 3256,
      "ｌ": 3257,
      "ｍ": 3258,
      "ｎ": 3259,
      "ｏ": 3260,
      "ｐ": 3261,
      "ｒ": 3262,
      "ｓ": 3263,
      "ｔ": 3264,
      "ｕ": 3265,
      "ｖ": 3266,
      "ｗ": 3267,
      "ｙ": 3268,
      "ｚ": 3269,
      "･": 3270,
      "ｲ": 3271,
      "ﾑ": 3272,
      "ﾶ": 3273,
      "ￒ": 3274,
      "￰": 3275,
      "￼": 3276,
      "𑀔": 3277,
      "𑀢": 3278,
      "𑀮": 3279,
      "𑀲": 3280,
      "𑀸": 3281,
      "𑀺": 3282,
      "𑁆": 3283,
      "𓂀": 3284,
      "𝐀": 3285,
      "𝐃": 3286,
      "𝐄": 3287,
      "𝐈": 3288,
      "𝐉": 3289,
      "𝐊": 3290,
      "𝐋": 3291,
      "𝐌": 3292,
      "𝐍": 3293,
      "𝐎": 3294,
      "𝐏": 3295,
      "𝐑": 3296,
      "𝐒": 3297,
      "𝐔": 3298,
      "𝗔": 3299,
      "𝗚": 3300,
      "𝗦": 3301,
      "𝗮": 3302,
      "𝗶": 3303,
      "𝗹": 3304,
      "𝗿": 3305,
      "𝘀": 3306,
      "𝘁": 3307,
      "🆒": 3308,
      "🇦": 3309,
      "🇧": 3310,
      "🇨": 3311,
      "🇪": 3312,
      "🇫": 3313,
      "🇬": 3314,
      "🇮": 3315,
      "🇰": 3316,
      "🇱": 3317,
      "🇳": 3318,
      "🇷": 3319,
      "🇸": 3320,
      "🇹": 3321,
      "🇺": 3322,
      "🇿": 3323,
      "🌀": 3324,
      "🌊": 3325,
      "🌋": 3326,
      "🌌": 3327,
      "🌍": 3328,
      "🌎": 3329,
      "🌏": 3330,
      "🌒": 3331,
      "🌙": 3332,
      "🌜": 3333,
      "🌝": 3334,
      "🌞": 3335,
      "🌟": 3336,
      "🌠": 3337,
      "🌤": 3338,
      "🌬": 3339,
      "🌭": 3340,
      "🌱": 3341,
      "🌲": 3342,
      "🌴": 3343,
      "🌷": 3344,
      "🌸": 3345,
      "🌹": 3346,
      "🌺": 3347,
      "🌻": 3348,
      "🌼": 3349,
      "🌾": 3350,
      "🍄": 3351,
      "🍅": 3352,
      "🍉": 3353,
      "🍊": 3354,
      "🍌": 3355,
      "🍎": 3356,
      "🍓": 3357,
      "🍔": 3358,
      "🍕": 3359,
      "🍖": 3360,
      "🍛": 3361,
      "🍜": 3362,
      "🍞": 3363,
      "🍟": 3364,
      "🍢": 3365,
      "🍣": 3366,
      "🍦": 3367,
      "🍮": 3368,
      "🍯": 3369,
      "🍰": 3370,
      "🍶": 3371,
      "🍷": 3372,
      "🍸": 3373,
      "🍺": 3374,
      "🍻": 3375,
      "🎀": 3376,
      "🎁": 3377,
      "🎂": 3378,
      "🎃": 3379,
      "🎄": 3380,
      "🎉": 3381,
      "🎊": 3382,
      "🎋": 3383,
      "🎓": 3384,
      "🎙": 3385,
      "🎤": 3386,
      "🎥": 3387,
      "🎧": 3388,
      "🎨": 3389,
      "🎬": 3390,
      "🎭": 3391,
      "🎮": 3392,
      "🎰": 3393,
      "🎲": 3394,
      "🎵": 3395,
      "🎶": 3396,
      "🎷": 3397,
      "🎸": 3398,
      "🎹": 3399,
      "🎺": 3400,
      "🎻": 3401,
      "🎼": 3402,
      "🏁": 3403,
      "🏃": 3404,
      "🏆": 3405,
      "🏇": 3406,
      "🏎": 3407,
      "🏘": 3408,
      "🏙": 3409,
      "🏚": 3410,
      "🏠": 3411,
      "🏡": 3412,
      "🏦": 3413,
      "🏫": 3414,
      "🏳": 3415,
      "🏻": 3416,
      "🏼": 3417,
      "🏽": 3418,
      "🏾": 3419,
      "🏿": 3420,
      "🐂": 3421,
      "🐃": 3422,
      "🐄": 3423,
      "🐆": 3424,
      "🐉": 3425,
      "🐊": 3426,
      "🐋": 3427,
      "🐌": 3428,
      "🐍": 3429,
      "🐎": 3430,
      "🐒": 3431,
      "🐓": 3432,
      "🐕": 3433,
      "🐘": 3434,
      "🐜": 3435,
      "🐝": 3436,
      "🐠": 3437,
      "🐣": 3438,
      "🐤": 3439,
      "🐦": 3440,
      "🐧": 3441,
      "🐮": 3442,
      "🐱": 3443,
      "🐶": 3444,
      "👀": 3445,
      "👂": 3446,
      "👄": 3447,
      "👅": 3448,
      "👆": 3449,
      "👇": 3450,
      "👈": 3451,
      "👉": 3452,
      "👊": 3453,
      "👋": 3454,
      "👌": 3455,
      "👍": 3456,
      "👎": 3457,
      "👏": 3458,
      "👑": 3459,
      "👓": 3460,
      "👔": 3461,
      "👖": 3462,
      "👙": 3463,
      "👝": 3464,
      "👠": 3465,
      "👣": 3466,
      "👦": 3467,
      "👨": 3468,
      "👩": 3469,
      "👫": 3470,
      "👬": 3471,
      "👭": 3472,
      "👮": 3473,
      "👹": 3474,
      "👻": 3475,
      "👼": 3476,
      "👽": 3477,
      "👿": 3478,
      "💀": 3479,
      "💁": 3480,
      "💃": 3481,
      "💆": 3482,
      "💇": 3483,
      "💉": 3484,
      "💌": 3485,
      "💎": 3486,
      "💐": 3487,
      "💑": 3488,
      "💓": 3489,
      "💔": 3490,
      "💕": 3491,
      "💖": 3492,
      "💗": 3493,
      "💘": 3494,
      "💙": 3495,
      "💚": 3496,
      "💛": 3497,
      "💜": 3498,
      "💝": 3499,
      "💞": 3500,
      "💟": 3501,
      "💠": 3502,
      "💡": 3503,
      "💣": 3504,
      "💥": 3505,
      "💦": 3506,
      "💧": 3507,
      "💩": 3508,
      "💪": 3509,
      "💫": 3510,
      "💭": 3511,
      "💯": 3512,
      "💰": 3513,
      "💱": 3514,
      "💲": 3515,
      "💵": 3516,
      "💶": 3517,
      "💷": 3518,
      "💸": 3519,
      "💻": 3520,
      "📅": 3521,
      "📋": 3522,
      "📌": 3523,
      "📍": 3524,
      "📑": 3525,
      "📕": 3526,
      "📖": 3527,
      "📚": 3528,
      "📝": 3529,
      "📞": 3530,
      "📠": 3531,
      "📢": 3532,
      "📪": 3533,
      "📱": 3534,
      "📲": 3535,
      "📷": 3536,
      "📸": 3537,
      "📺": 3538,
      "🔄": 3539,
      "🔅": 3540,
      "🔆": 3541,
      "🔉": 3542,
      "🔊": 3543,
      "🔍": 3544,
      "🔎": 3545,
      "🔑": 3546,
      "🔒": 3547,
      "🔔": 3548,
      "🔖": 3549,
      "🔘": 3550,
      "🔚": 3551,
      "🔛": 3552,
      "🔜": 3553,
      "🔞": 3554,
      "🔥": 3555,
      "🔨": 3556,
      "🔫": 3557,
      "🔬": 3558,
      "🔮": 3559,
      "🔰": 3560,
      "🔴": 3561,
      "🔵": 3562,
      "🔶": 3563,
      "🔷": 3564,
      "🔸": 3565,
      "🔹": 3566,
      "🔺": 3567,
      "🔻": 3568,
      "🔽": 3569,
      "🕑": 3570,
      "🕒": 3571,
      "🕛": 3572,
      "🕳": 3573,
      "🕹": 3574,
      "🕺": 3575,
      "🖋": 3576,
      "🖐": 3577,
      "🖕": 3578,
      "🖤": 3579,
      "😀": 3580,
      "😁": 3581,
      "😂": 3582,
      "😃": 3583,
      "😄": 3584,
      "😅": 3585,
      "😆": 3586,
      "😇": 3587,
      "😈": 3588,
      "😉": 3589,
      "😊": 3590,
      "😋": 3591,
      "😌": 3592,
      "😍": 3593,
      "😎": 3594,
      "😏": 3595,
      "😐": 3596,
      "😑": 3597,
      "😒": 3598,
      "😓": 3599,
      "😔": 3600,
      "😕": 3601,
      "😖": 3602,
      "😗": 3603,
      "😘": 3604,
      "😙": 3605,
      "😚": 3606,
      "😛": 3607,
      "😜": 3608,
      "😝": 3609,
      "😞": 3610,
      "😟": 3611,
      "😠": 3612,
      "😡": 3613,
      "😢": 3614,
      "😣": 3615,
      "😤": 3616,
      "😥": 3617,
      "😦": 3618,
      "😨": 3619,
      "😩": 3620,
      "😪": 3621,
      "😫": 3622,
      "😬": 3623,
      "😭": 3624,
      "😮": 3625,
      "😯": 3626,
      "😰": 3627,
      "😱": 3628,
      "😲": 3629,
      "😳": 3630,
      "😵": 3631,
      "😶": 3632,
      "😷": 3633,
      "😹": 3634,
      "😺": 3635,
      "😻": 3636,
      "🙁": 3637,
      "🙂": 3638,
      "🙃": 3639,
      "🙄": 3640,
      "🙅": 3641,
      "🙆": 3642,
      "🙈": 3643,
      "🙉": 3644,
      "🙊": 3645,
      "🙋": 3646,
      "🙌": 3647,
      "🙏": 3648,
      "🚀": 3649,
      "🚂": 3650,
      "🚌": 3651,
      "🚎": 3652,
      "🚐": 3653,
      "🚑": 3654,
      "🚒": 3655,
      "🚓": 3656,
      "🚔": 3657,
      "🚕": 3658,
      "🚖": 3659,
      "🚗": 3660,
      "🚘": 3661,
      "🚙": 3662,
      "🚚": 3663,
      "🚛": 3664,
      "🚜": 3665,
      "🚨": 3666,
      "🚩": 3667,
      "🚫": 3668,
      "🚸": 3669,
      "🛌": 3670,
      "🛎": 3671,
      "🛑": 3672,
      "🛒": 3673,
      "🛣": 3674,
      "🛤": 3675,
      "🤐": 3676,
      "🤑": 3677,
      "🤓": 3678,
      "🤔": 3679,
      "🤕": 3680,
      "🤗": 3681,
      "🤘": 3682,
      "🤛": 3683,
      "🤜": 3684,
      "🤞": 3685,
      "🤟": 3686,
      "🤠": 3687,
      "🤡": 3688,
      "🤣": 3689,
      "🤤": 3690,
      "🤥": 3691,
      "🤦": 3692,
      "🤨": 3693,
      "🤩": 3694,
      "🤪": 3695,
      "🤬": 3696,
      "🤭": 3697,
      "🤮": 3698,
      "🤳": 3699,
      "🤷": 3700,
      "🥀": 3701,
      "🥁": 3702,
      "🥃": 3703,
      "🥇": 3704,
      "🥲": 3705,
      "🥹": 3706,
      "🦁": 3707,
      "🦋": 3708,
      "🧐": 3709,
      "🧗": 3710,
      "🧡": 3711,
      "##ෙ": 3712,
      "##ා": 3713,
      "##හ": 3714,
      "##ම": 3715,
      "##ය": 3716,
      "##ක": 3717,
      "##්": 3718,
      "##ු": 3719,
      "##ර": 3720,
      "##ෝ": 3721,
      "##ථ": 3722,
      "##න": 3723,
      "##ව": 3724,
      "##ල": 3725,
      "##ග": 3726,
      "##ද": 3727,
      "##ි": 3728,
      "##ට": 3729,
      "##ප": 3730,
      "##ො": 3731,
      "##ඩ": 3732,
      "##ස": 3733,
      "##ඳ": 3734,
      "##ේ": 3735,
      "##ශ": 3736,
      "##භ": 3737,
      "##ූ": 3738,
      "##ත": 3739,
      "##ච": 3740,
      "##ැ": 3741,
      "##ධ": 3742,
      "##ී": 3743,
      "##ං": 3744,
      "##ෛ": 3745,
      "##බ": 3746,
      "##ෂ": 3747,
      "##2": 3748,
      "##0": 3749,
      "##ෑ": 3750,
      "##ඥ": 3751,
      "##ණ": 3752,
      "##ළ": 3753,
      "##ட": 3754,
      "##ம": 3755,
      "##ை": 3756,
      "##க": 3757,
      "##ள": 3758,
      "##்": 3759,
      "##ඡ": 3760,
      "##ආ": 3761,
      "##ජ": 3762,
      "##එ": 3763,
      "##උ": 3764,
      "##ඣ": 3765,
      "##අ": 3766,
      "##ඨ": 3767,
      "##ෆ": 3768,
      "##6": 3769,
      "##1": 3770,
      "##9": 3771,
      "##5": 3772,
      "##ඟ": 3773,
      "##ඉ": 3774,
      "##ඝ": 3775,
      "##8": 3776,
      "##7": 3777,
      "##3": 3778,
      "##4": 3779,
      "##ෘ": 3780,
      "##ඛ": 3781,
      "##ަ": 3782,
      "##ލ": 3783,
      "##ި": 3784,
      "##ފ": 3785,
      "##ު": 3786,
      "##ށ": 3787,
      "##ඇ": 3788,
      "##ඹ": 3789,
      "##ඓ": 3790,
      "##ෲ": 3791,
      "##ό": 3792,
      "##μ": 3793,
      "##ο": 3794,
      "##ς": 3795,
      "##ர": 3796,
      "##ஸ": 3797,
      "##ா": 3798,
      "##ல": 3799,
      "##ு": 3800,
      "##வ": 3801,
      "##ி": 3802,
      "##ய": 3803,
      "##ඊ": 3804,
      "##ඵ": 3805,
      "##¹": 3806,
      "##ඞ": 3807,
      "##ෞ": 3808,
      "##ඔ": 3809,
      "##´": 3810,
      "##ඬ": 3811,
      "##ீ": 3812,
      "##ப": 3813,
      "##ā": 3814,
      "##µ": 3815,
      "##¨": 3816,
      "##д": 3817,
      "##ы": 3818,
      "##г": 3819,
      "##э": 3820,
      "##б": 3821,
      "##з": 3822,
      "##ඪ": 3823,
      "##ே": 3824,
      "##ெ": 3825,
      "##ண": 3826,
      "##ழ": 3827,
      "##த": 3828,
      "##ㄱ": 3829,
      "##ந": 3830,
      "##ங": 3831,
      "##ඤ": 3832,
      "##️": 3833,
      "##ன": 3834,
      "##ற": 3835,
      "##ூ": 3836,
      "##ඒ": 3837,
      "##ˌ": 3838,
      "##ඍ": 3839,
      "##¥": 3840,
      "##ඕ": 3841,
      "##∙": 3842,
      "##क": 3843,
      "##्": 3844,
      "##ष": 3845,
      "##त": 3846,
      "##र": 3847,
      "##ः": 3848,
      "##ê": 3849,
      "##×": 3850,
      "##의": 3851,
      "##정": 3852,
      "##à": 3853,
      "##⭕": 3854,
      "##¾": 3855,
      "##ஜ": 3856,
      "##ஞ": 3857,
      "##ொ": 3858,
      "##ச": 3859,
      "##ோ": 3860,
      "##î": 3861,
      "##˜": 3862,
      "##þ": 3863,
      "##¸": 3864,
      "##x": 3865,
      "##š": 3866,
      "##ෟ": 3867,
      "##ඌ": 3868,
      "##™": 3869,
      "##ţ": 3870,
      "##ω": 3871,
      "##ஷ": 3872,
      "##ඃ": 3873,
      "##ඏ": 3874,
      "##↦": 3875,
      "##ٹ": 3876,
      "##و": 3877,
      "##ا": 3878,
      "##ر": 3879,
      "##ŝ": 3880,
      "##ل": 3881,
      "##ب": 3882,
      "##َ": 3883,
      "##د": 3884,
      "##🏻": 3885,
      "##م": 3886,
      "##ْ": 3887,
      "##ش": 3888,
      "##ُ": 3889,
      "##ن": 3890,
      "##ि": 3891,
      "##प": 3892,
      "##ट": 3893,
      "##¼": 3894,
      "##ū": 3895,
      "##æ": 3896,
      "##இ": 3897,
      "##è": 3898,
      "##o": 3899,
      "##◌": 3900,
      "##😂": 3901,
      "##🙈": 3902,
      "##🤣": 3903,
      "##😳": 3904,
      "##ី": 3905,
      "##វ": 3906,
      "##ត": 3907,
      "##ន": 3908,
      "##ា": 3909,
      "##ង": 3910,
      "##ច": 3911,
      "##ំ": 3912,
      "##គ": 3913,
      "##ឹ": 3914,
      "##ម": 3915,
      "##°": 3916,
      "##ड": 3917,
      "##ू": 3918,
      "##ँ": 3919,
      "##о": 3920,
      "##т": 3921,
      "##р": 3922,
      "##у": 3923,
      "##н": 3924,
      "##и": 3925,
      "##к": 3926,
      "##n": 3927,
      "##☺": 3928,
      "##☔": 3929,
      "##d": 3930,
      "##ª": 3931,
      "##®": 3932,
      "##€": 3933,
      "##ш": 3934,
      "##е": 3935,
      "##л": 3936,
      "##á": 3937,
      "##đ": 3938,
      "##ĉ": 3939,
      "##â": 3940,
      "##♔": 3941,
      "##ط": 3942,
      "##ق": 3943,
      "##ة": 3944,
      "##ਿ": 3945,
      "##ਰ": 3946,
      "##ਭ": 3947,
      "##ਉ": 3948,
      "##😚": 3949,
      "##🙃": 3950,
      "##ஆ": 3951,
      "##ˁ": 3952,
      "##사": 3953,
      "##형": 3954,
      "##👔": 3955,
      "##😉": 3956,
      "##😛": 3957,
      "##😆": 3958,
      "##ý": 3959,
      "##ț": 3960,
      "##ə": 3961,
      "##τ": 3962,
      "##η": 3963,
      "##ˈ": 3964,
      "##ʲ": 3965,
      "##ɪ": 3966,
      "##½": 3967,
      "##с": 3968,
      "##а": 3969,
      "##я": 3970,
      "##◀": 3971,
      "##é": 3972,
      "##t": 3973,
      "##e": 3974,
      "##🎶": 3975,
      "##🌹": 3976,
      "##💕": 3977,
      "##¤": 3978,
      "##l": 3979,
      "##ஹ": 3980,
      "##□": 3981,
      "##ʌ": 3982,
      "##گ": 3983,
      "##ی": 3984,
      "##ت": 3985,
      "##ௌ": 3986,
      "##⁄": 3987,
      "##α": 3988,
      "##ῖ": 3989,
      "##ν": 3990,
      "##ε": 3991,
      "##ι": 3992,
      "##ρ": 3993,
      "##έ": 3994,
      "##ِ": 3995,
      "##ٌ": 3996,
      "##👌": 3997,
      "##û": 3998,
      "##ئ": 3999,
      "##ّ": 4000,
      "##ي": 4001,
      "##🤔": 4002,
      "##🔍": 4003,
      "##ï": 4004,
      "##려": 4005,
      "##춘": 4006,
      "##न": 4007,
      "##च": 4008,
      "##ा": 4009,
      "##෿": 4010,
      "##💛": 4011,
      "##ָ": 4012,
      "##פ": 4013,
      "##ו": 4014,
      "##ֹ": 4015,
      "##◘": 4016,
      "##м": 4017,
      "##˛": 4018,
      "##ó": 4019,
      "##☄": 4020,
      "##😒": 4021,
      "##ʔ": 4022,
      "##й": 4023,
      "##💟": 4024,
      "##˙": 4025,
      "##∶": 4026,
      "##े": 4027,
      "##व": 4028,
      "##ग": 4029,
      "##ी": 4030,
      "##ك": 4031,
      "##ನ": 4032,
      "##್": 4033,
      "##ಡ": 4034,
      "##ἶ": 4035,
      "##κ": 4036,
      "##경": 4037,
      "##수": 4038,
      "##ै": 4039,
      "##स": 4040,
      "##➲": 4041,
      "##►": 4042,
      "##ḇ": 4043,
      "##ḵ": 4044,
      "##ḏ": 4045,
      "##ṣ": 4046,
      "##😜": 4047,
      "##в": 4048,
      "##■": 4049,
      "##ਨ": 4050,
      "##관": 4051,
      "##회": 4052,
      "##˚": 4053,
      "##👈": 4054,
      "##ඈ": 4055,
      "##̚": 4056,
      "##ž": 4057,
      "##í": 4058,
      "##굴": 4059,
      "##ὐ": 4060,
      "##λ": 4061,
      "##γ": 4062,
      "##υ": 4063,
      "##δ": 4064,
      "##ΐ": 4065,
      "##ζ": 4066,
      "##😍": 4067,
      "##ц": 4068,
      "##ø": 4069,
      "##ෳ": 4070,
      "##😀": 4071,
      "##😁": 4072,
      "##©": 4073,
      "##자": 4074,
      "##어": 4075,
      "##ඖ": 4076,
      "##ʹ": 4077,
      "##ほ": 4078,
      "##ん": 4079,
      "##ご": 4080,
      "##が": 4081,
      "##っ": 4082,
      "##こ": 4083,
      "##う": 4084,
      "##ぐ": 4085,
      "##や": 4086,
      "##ി": 4087,
      "##യ": 4088,
      "##ാ": 4089,
      "##സ": 4090,
      "##്": 4091,
      "##😻": 4092,
      "##주": 4093,
      "##지": 4094,
      "##돈": 4095,
      "##녕": 4096,
      "##य": 4097,
      "##덕": 4098,
      "##여": 4099,
      "##왕": 4100,
      "##🌎": 4101,
      "##🔥": 4102,
      "##✱": 4103,
      "##ί": 4104,
      "##∎": 4105,
      "##ന": 4106,
      "##계": 4107,
      "##필": 4108,
      "##담": 4109,
      "##உ": 4110,
      "##́": 4111,
      "##ь": 4112,
      "##국": 4113,
      "##ه": 4114,
      "##ྟ": 4115,
      "##ག": 4116,
      "##ד": 4117,
      "##י": 4118,
      "##ב": 4119,
      "##ר": 4120,
      "##ת": 4121,
      "##✘": 4122,
      "##ඦ": 4123,
      "##균": 4124,
      "##천": 4125,
      "##군": 4126,
      "##ч": 4127,
      "##ე": 4128,
      "##გ": 4129,
      "##ი": 4130,
      "##ძ": 4131,
      "##ლ": 4132,
      "##ა": 4133,
      "##თ": 4134,
      "##랑": 4135,
      "##가": 4136,
      "##õ": 4137,
      "##👀": 4138,
      "##헌": 4139,
      "##≡": 4140,
      "##혜": 4141,
      "##무": 4142,
      "##원": 4143,
      "##ﷺ": 4144,
      "##안": 4145,
      "##😢": 4146,
      "##😙": 4147,
      "##👍": 4148,
      "##ṭ": 4149,
      "##ુ": 4150,
      "##જ": 4151,
      "##ર": 4152,
      "##ા": 4153,
      "##ત": 4154,
      "##ી": 4155,
      "##🙉": 4156,
      "##🔨": 4157,
      "##ע": 4158,
      "##ל": 4159,
      "##ז": 4160,
      "##ိ": 4161,
      "##န": 4162,
      "##္": 4163,
      "##만": 4164,
      "##평": 4165,
      "##박": 4166,
      "##☆": 4167,
      "##˝": 4168,
      "##อ": 4169,
      "##ม": 4170,
      "##น": 4171,
      "##า": 4172,
      "##ง": 4173,
      "##แ": 4174,
      "##ห": 4175,
      "##่": 4176,
      "##ว": 4177,
      "##ั": 4178,
      "##ล": 4179,
      "##ÿ": 4180,
      "##🏙": 4181,
      "##ס": 4182,
      "##과": 4183,
      "##²": 4184,
      "##β": 4185,
      "##ụ": 4186,
      "##ஃ": 4187,
      "##ά": 4188,
      "##♦": 4189,
      "##h": 4190,
      "##a": 4191,
      "##¦": 4192,
      "##❤": 4193,
      "##φ": 4194,
      "##💯": 4195,
      "##w": 4196,
      "##r": 4197,
      "##⛔": 4198,
      "##m": 4199,
      "##ェ": 4200,
      "##ミ": 4201,
      "##ア": 4202,
      "##조": 4203,
      "##백": 4204,
      "##ह": 4205,
      "##ं": 4206,
      "##ུ": 4207,
      "##♣": 4208,
      "##🏽": 4209,
      "##ú": 4210,
      "##ş": 4211,
      "##🐃": 4212,
      "##ֲ": 4213,
      "##ש": 4214,
      "##ֶ": 4215,
      "##ׂ": 4216,
      "##म": 4217,
      "##y": 4218,
      "##ē": 4219,
      "##😤": 4220,
      "##ஐ": 4221,
      "##−": 4222,
      "##현": 4223,
      "##후": 4224,
      "##신": 4225,
      "##이": 4226,
      "##ɕ": 4227,
      "##➣": 4228,
      "##💓": 4229,
      "##ǎ": 4230,
      "##찰": 4231,
      "##✴": 4232,
      "##k": 4233,
      "##ع": 4234,
      "##ј": 4235,
      "##п": 4236,
      "##방": 4237,
      "##v": 4238,
      "##√": 4239,
      "##일": 4240,
      "##동": 4241,
      "##¬": 4242,
      "##영": 4243,
      "##ϊ": 4244,
      "##σ": 4245,
      "##⚫": 4246,
      "##🤡": 4247,
      "##🍌": 4248,
      "##⃣": 4249,
      "##£": 4250,
      "##ѕ": 4251,
      "##블": 4252,
      "##х": 4253,
      "##ä": 4254,
      "##ぜ": 4255,
      "##い": 4256,
      "##し": 4257,
      "##ょ": 4258,
      "##め": 4259,
      "##͡": 4260,
      "##ʻ": 4261,
      "##😱": 4262,
      "##📢": 4263,
      "##ŧ": 4264,
      "##є": 4265,
      "##º": 4266,
      "##ː": 4267,
      "##θ": 4268,
      "##ɑ": 4269,
      "##💶": 4270,
      "##◆": 4271,
      "##○": 4272,
      "##˘": 4273,
      "##צ": 4274,
      "##ض": 4275,
      "##◾": 4276,
      "##상": 4277,
      "##イ": 4278,
      "##フ": 4279,
      "##エ": 4280,
      "##ド": 4281,
      "##ก": 4282,
      "##บ": 4283,
      "##ฏ": 4284,
      "##ใ": 4285,
      "##จ": 4286,
      "##ʊ": 4287,
      "##ｙ": 4288,
      "##ｎ": 4289,
      "##ａ": 4290,
      "##ｔ": 4291,
      "##ｃ": 4292,
      "##락": 4293,
      "##ン": 4294,
      "##ヨ": 4295,
      "##ウ": 4296,
      "##ጥ": 4297,
      "##ራ": 4298,
      "##ት": 4299,
      "##💪": 4300,
      "##▻": 4301,
      "##💲": 4302,
      "##ो": 4303,
      "##로": 4304,
      "##부": 4305,
      "##👠": 4306,
      "##ਹ": 4307,
      "##ਸ": 4308,
      "##ύ": 4309,
      "##͒": 4310,
      "##🐠": 4311,
      "##대": 4312,
      "##∕": 4313,
      "##அ": 4314,
      "##행": 4315,
      "##은": 4316,
      "##ǃ": 4317,
      "##리": 4318,
      "##장": 4319,
      "##성": 4320,
      "##c": 4321,
      "##양": 4322,
      "##उ": 4323,
      "##ळ": 4324,
      "##😄": 4325,
      "##➨": 4326,
      "##セ": 4327,
      "##ル": 4328,
      "##ˑ": 4329,
      "##س": 4330,
      "##🙂": 4331,
      "##b": 4332,
      "##🇰": 4333,
      "##🇱": 4334,
      "##џ": 4335,
      "##ћ": 4336,
      "##륭": 4337,
      "##ہ": 4338,
      "##ɒ": 4339,
      "##द": 4340,
      "##문": 4341,
      "##토": 4342,
      "##기": 4343,
      "##ʿ": 4344,
      "##ж": 4345,
      "##편": 4346,
      "##간": 4347,
      "##خ": 4348,
      "##ذ": 4349,
      "##඼": 4350,
      "##❗": 4351,
      "##ृ": 4352,
      "##♥": 4353,
      "##◄": 4354,
      "##ɬ": 4355,
      "##ð": 4356,
      "##i": 4357,
      "##✖": 4358,
      "##🎧": 4359,
      "##⁻": 4360,
      "##³": 4361,
      "##⁹": 4362,
      "##ح": 4363,
      "##👉": 4364,
      "##▬": 4365,
      "##⏳": 4366,
      "##⏰": 4367,
      "##에": 4368,
      "##서": 4369,
      "##ŋ": 4370,
      "##🚘": 4371,
      "##რ": 4372,
      "##კ": 4373,
      "##ო": 4374,
      "##j": 4375,
      "##ɛ": 4376,
      "##s": 4377,
      "##✌": 4378,
      "##황": 4379,
      "##ص": 4380,
      "##✍": 4381,
      "##종": 4382,
      "##호": 4383,
      "##나": 4384,
      "##✔": 4385,
      "##→": 4386,
      "##ή": 4387,
      "##χ": 4388,
      "##탄": 4389,
      "##강": 4390,
      "##구": 4391,
      "##비": 4392,
      "##g": 4393,
      "##ī": 4394,
      "##😅": 4395,
      "##ز": 4396,
      "##ü": 4397,
      "##ʰ": 4398,
      "##🕳": 4399,
      "##໦": 4400,
      "##😬": 4401,
      "##せ": 4402,
      "##か": 4403,
      "##া": 4404,
      "##য": 4405,
      "##়": 4406,
      "##🔹": 4407,
      "##😊": 4408,
      "##ִ": 4409,
      "##ּ": 4410,
      "##ה": 4411,
      "##🙏": 4412,
      "##👊": 4413,
      "##¢": 4414,
      "##ҡ": 4415,
      "##ֽ": 4416,
      "##ｍ": 4417,
      "##７": 4418,
      "##벌": 4419,
      "##♡": 4420,
      "##💦": 4421,
      "##😋": 4422,
      "##릉": 4423,
      "##식": 4424,
      "##속": 4425,
      "##들": 4426,
      "##⁶": 4427,
      "##세": 4428,
      "##ト": 4429,
      "##ー": 4430,
      "##タ": 4431,
      "##サ": 4432,
      "##ポ": 4433,
      "##ブ": 4434,
      "##ラ": 4435,
      "##÷": 4436,
      "##🔴": 4437,
      "##ř": 4438,
      "##희": 4439,
      "##ஒ": 4440,
      "##ç": 4441,
      "##ຌ": 4442,
      "##ם": 4443,
      "##ὸ": 4444,
      "##↩": 4445,
      "##ښ": 4446,
      "##뎌": 4447,
      "##라": 4448,
      "##ф": 4449,
      "##ʂ": 4450,
      "##ɳ": 4451,
      "##ु": 4452,
      "##ब": 4453,
      "##ḥ": 4454,
      "##🔆": 4455,
      "##☎": 4456,
      "##👻": 4457,
      "##🔫": 4458,
      "##￼": 4459,
      "##œ": 4460,
      "##💥": 4461,
      "##시": 4462,
      "##🔞": 4463,
      "##ʁ": 4464,
      "##ɶ": 4465,
      "##ˀ": 4466,
      "##ￒ": 4467,
      "##๬": 4468,
      "##ｉ": 4469,
      "##ｆ": 4470,
      "##ｅ": 4471,
      "##ｒ": 4472,
      "##ｏ": 4473,
      "##🖕": 4474,
      "##ı": 4475,
      "##إ": 4476,
      "##ṃ": 4477,
      "##ऊ": 4478,
      "##़": 4479,
      "##p": 4480,
      "##¯": 4481,
      "##🤜": 4482,
      "##🤛": 4483,
      "##📱": 4484,
      "##👇": 4485,
      "##물": 4486,
      "##연": 4487,
      "##u": 4488,
      "##ḷ": 4489,
      "##あ": 4490,
      "##ö": 4491,
      "##≥": 4492,
      "##녀": 4493,
      "##★": 4494,
      "##아": 4495,
      "##보": 4496,
      "##ल": 4497,
      "##ט": 4498,
      "##악": 4499,
      "##✏": 4500,
      "##🌷": 4501,
      "##ེ": 4502,
      "##➩": 4503,
      "##і": 4504,
      "##화": 4505,
      "##ஊ": 4506,
      "##✪": 4507,
      "##❆": 4508,
      "##ã": 4509,
      "##ъ": 4510,
      "##ô": 4511,
      "##💖": 4512,
      "##ạ": 4513,
      "##パ": 4514,
      "##ス": 4515,
      "##🎼": 4516,
      "##💇": 4517,
      "##🎸": 4518,
      "##ù": 4519,
      "##थ": 4520,
      "##ἰ": 4521,
      "##щ": 4522,
      "##름": 4523,
      "##つ": 4524,
      "##ぎ": 4525,
      "##💐": 4526,
      "##🌻": 4527,
      "##ō": 4528,
      "##な": 4529,
      "##た": 4530,
      "##の": 4531,
      "##へ": 4532,
      "##ف": 4533,
      "##ʃ": 4534,
      "##∅": 4535,
      "##ڑ": 4536,
      "##پ": 4537,
      "##잉": 4538,
      "##제": 4539,
      "##č": 4540,
      "##🌾": 4541,
      "##👣": 4542,
      "##ě": 4543,
      "##재": 4544,
      "##검": 4545,
      "##색": 4546,
      "##̆": 4547,
      "##ج": 4548,
      "##건": 4549,
      "##감": 4550,
      "##ῦ": 4551,
      "##▓": 4552,
      "##▒": 4553,
      "##░": 4554,
      "##😎": 4555,
      "##💗": 4556,
      "##♫": 4557,
      "##😇": 4558,
      "##⚾": 4559,
      "##산": 4560,
      "##촌": 4561,
      "##🏿": 4562,
      "##✿": 4563,
      "##å": 4564,
      "##록": 4565,
      "##ｌ": 4566,
      "##̲": 4567,
      "##̅": 4568,
      "##٨": 4569,
      "##٥": 4570,
      "##٦": 4571,
      "##π": 4572,
      "##ṛ": 4573,
      "##😪": 4574,
      "##כ": 4575,
      "##फ़": 4576,
      "##➢": 4577,
      "##🤗": 4578,
      "##ং": 4579,
      "##ল": 4580,
      "##দ": 4581,
      "##ে": 4582,
      "##শ": 4583,
      "##품": 4584,
      "##💘": 4585,
      "##ệ": 4586,
      "##෦": 4587,
      "##±": 4588,
      "##ⓛ": 4589,
      "##ⓞ": 4590,
      "##ⓥ": 4591,
      "##ⓔ": 4592,
      "##🤓": 4593,
      "##🧐": 4594,
      "##↔": 4595,
      "##졌": 4596,
      "##다": 4597,
      "##ು": 4598,
      "##ಿ": 4599,
      "##ಲ": 4600,
      "##─": 4601,
      "##श": 4602,
      "##생": 4603,
      "##ñ": 4604,
      "##ë": 4605,
      "##۩": 4606,
      "##۞": 4607,
      "##๑": 4608,
      "##⦁": 4609,
      "##ś": 4610,
      "##ṅ": 4611,
      "##단": 4612,
      "##ڵ": 4613,
      "##މ": 4614,
      "##ް": 4615,
      "##ހ": 4616,
      "##ޫ": 4617,
      "##ރ": 4618,
      "##އ": 4619,
      "##ޔ": 4620,
      "##ާ": 4621,
      "##ठ": 4622,
      "##❉": 4623,
      "##ା": 4624,
      "##ଉ": 4625,
      "##ସ": 4626,
      "##ୀ": 4627,
      "##ি": 4628,
      "##ভ": 4629,
      "##ূ": 4630,
      "##ত": 4631,
      "##ষ": 4632,
      "##ণ": 4633,
      "##✅": 4634,
      "##야": 4635,
      "##●": 4636,
      "##순": 4637,
      "##ک": 4638,
      "##▂": 4639,
      "##ੁ": 4640,
      "##ਖ": 4641,
      "##♪": 4642,
      "##노": 4643,
      "##윤": 4644,
      "##ג": 4645,
      "##범": 4646,
      "##선": 4647,
      "##ً": 4648,
      "##ß": 4649,
      "##🙊": 4650,
      "##↕": 4651,
      "##ƒ": 4652,
      "##취": 4653,
      "##ɲ": 4654,
      "##ɔ": 4655,
      "##أ": 4656,
      "##😩": 4657,
      "##👫": 4658,
      "##🌟": 4659,
      "##😺": 4660,
      "##ũ": 4661,
      "##열": 4662,
      "##נ": 4663,
      "##ஈ": 4664,
      "##მ": 4665,
      "##ǔ": 4666,
      "##림": 4667,
      "##ದ": 4668,
      "##ರ": 4669,
      "##ಕ": 4670,
      "##ಾ": 4671,
      "##ಳ": 4672,
      "##ṝ": 4673,
      "##😐": 4674,
      "##😑": 4675,
      "##ོ": 4676,
      "##ད": 4677,
      "##घ": 4678,
      "##ֵ": 4679,
      "##ɯ": 4680,
      "##̥": 4681,
      "##̄": 4682,
      "##ੰ": 4683,
      "##ਧ": 4684,
      "##ｋ": 4685,
      "##≈": 4686,
      "##∞": 4687,
      "##ण": 4688,
      "##각": 4689,
      "##ɨ": 4690,
      "##ʒ": 4691,
      "##எ": 4692,
      "##ɣ": 4693,
      "##ʋ": 4694,
      "##ެ": 4695,
      "##ނ": 4696,
      "##ދ": 4697,
      "##ʕ": 4698,
      "##♐": 4699,
      "##인": 4700,
      "##◊": 4701,
      "##⚽": 4702,
      "##ķ": 4703,
      "##ĥ": 4704,
      "##궁": 4705,
      "##ɐ": 4706,
      "##ゅ": 4707,
      "##く": 4708,
      "##ど": 4709,
      "##하": 4710,
      "##ְ": 4711,
      "##ׁ": 4712,
      "##ֻ": 4713,
      "##ַ": 4714,
      "##류": 4715,
      "##ї": 4716,
      "##≠": 4717,
      "##⁰": 4718,
      "##भ": 4719,
      "##ూ": 4720,
      "##ల": 4721,
      "##😌": 4722,
      "##르": 4723,
      "##ޮ": 4724,
      "##ን": 4725,
      "##ድ": 4726,
      "##⌛": 4727,
      "##f": 4728,
      "##을": 4729,
      "##🤥": 4730,
      "##😝": 4731,
      "##위": 4732,
      "##량": 4733,
      "##밀": 4734,
      "##네": 4735,
      "##❄": 4736,
      "##מ": 4737,
      "##ק": 4738,
      "##̈": 4739,
      "##♀": 4740,
      "##🧗": 4741,
      "##א": 4742,
      "##↘": 4743,
      "##🇹": 4744,
      "##두": 4745,
      "##씨": 4746,
      "##ገ": 4747,
      "##ባ": 4748,
      "##ሁ": 4749,
      "##🦋": 4750,
      "##🆒": 4751,
      "##☢": 4752,
      "##🌼": 4753,
      "##📲": 4754,
      "##한": 4755,
      "##ㅇ": 4756,
      "##🔔": 4757,
      "##q": 4758,
      "##🏼": 4759,
      "##ɖ": 4760,
      "##불": 4761,
      "##ю": 4762,
      "##▌": 4763,
      "##◣": 4764,
      "##ǐ": 4765,
      "##ì": 4766,
      "##ಮ": 4767,
      "##😏": 4768,
      "##🙄": 4769,
      "##ۆ": 4770,
      "##캐": 4771,
      "##공": 4772,
      "##ら": 4773,
      "##よ": 4774,
      "##ｇ": 4775,
      "##🐊": 4776,
      "##្": 4777,
      "##ស": 4778,
      "##រ": 4779,
      "##ខ": 4780,
      "##ញ": 4781,
      "##ុ": 4782,
      "##ជ": 4783,
      "##ភ": 4784,
      "##ព": 4785,
      "##ផ": 4786,
      "##ក": 4787,
      "##យ": 4788,
      "##⚡": 4789,
      "##ɡ": 4790,
      "##ハ": 4791,
      "##ῷ": 4792,
      "##ą": 4793,
      "##임": 4794,
      "##😔": 4795,
      "##👑": 4796,
      "##ὰ": 4797,
      "##ख": 4798,
      "##େ": 4799,
      "##ଳ": 4800,
      "##금": 4801,
      "##🐧": 4802,
      "##🍓": 4803,
      "##ু": 4804,
      "##র": 4805,
      "##্": 4806,
      "##ক": 4807,
      "##ˆ": 4808,
      "##😟": 4809,
      "##말": 4810,
      "##ډ": 4811,
      "##⊰": 4812,
      "##ќ": 4813,
      "##ɾ": 4814,
      "##ח": 4815,
      "##😭": 4816,
      "##ى": 4817,
      "##ʼ": 4818,
      "##ಜ": 4819,
      "##ೀ": 4820,
      "##ಂ": 4821,
      "##ತ": 4822,
      "##파": 4823,
      "##태": 4824,
      "##진": 4825,
      "##ज": 4826,
      "##ञ": 4827,
      "##🤩": 4828,
      "##✨": 4829,
      "##🍟": 4830,
      "##ء": 4831,
      "##빛": 4832,
      "##ছ": 4833,
      "##ই": 4834,
      "##ন": 4835,
      "##̴": 4836,
      "##🥇": 4837,
      "##ʷ": 4838,
      "##ⱳ": 4839,
      "##ମ": 4840,
      "##☸": 4841,
      "##😲": 4842,
      "##８": 4843,
      "##９": 4844,
      "##골": 4845,
      "##ㅎ": 4846,
      "##💙": 4847,
      "##🌺": 4848,
      "##🇸": 4849,
      "##🇬": 4850,
      "##오": 4851,
      "##ൂ": 4852,
      "##ണ": 4853,
      "##ട": 4854,
      "##പ": 4855,
      "##⚛": 4856,
      "##ែ": 4857,
      "##ম": 4858,
      "##▲": 4859,
      "##ɍ": 4860,
      "##ɧ": 4861,
      "##ʈ": 4862,
      "##스": 4863,
      "##를": 4864,
      "##🇷": 4865,
      "##울": 4866,
      "##♠": 4867,
      "##빈": 4868,
      "##ク": 4869,
      "##ザ": 4870,
      "##도": 4871,
      "##ṇ": 4872,
      "##🎵": 4873,
      "##항": 4874,
      "##ോ": 4875,
      "##ു": 4876,
      "##ങ": 4877,
      "##ക": 4878,
      "##ല": 4879,
      "##학": 4880,
      "##교": 4881,
      "##ŷ": 4882,
      "##║": 4883,
      "##╚": 4884,
      "##╝": 4885,
      "##ো": 4886,
      "##ู": 4887,
      "##ิ": 4888,
      "##พ": 4889,
      "##ด": 4890,
      "##ุ": 4891,
      "##ย": 4892,
      "##เ": 4893,
      "##ช": 4894,
      "##💞": 4895,
      "##ི": 4896,
      "##མ": 4897,
      "##🍛": 4898,
      "##স": 4899,
      "##우": 4900,
      "##٩": 4901,
      "##れ": 4902,
      "##え": 4903,
      "##る": 4904,
      "##살": 4905,
      "##늬": 4906,
      "##👼": 4907,
      "##ټ": 4908,
      "##치": 4909,
      "##거": 4910,
      "##໤": 4911,
      "##１": 4912,
      "##ọ": 4913,
      "##ব": 4914,
      "##▶": 4915,
      "##❖": 4916,
      "##̩": 4917,
      "##̪": 4918,
      "##유": 4919,
      "##중": 4920,
      "##함": 4921,
      "##ղ": 4922,
      "##ե": 4923,
      "##ռ": 4924,
      "##ն": 4925,
      "##╬": 4926,
      "##ğ": 4927,
      "##요": 4928,
      "##고": 4929,
      "##당": 4930,
      "##읍": 4931,
      "##😘": 4932,
      "##🇪": 4933,
      "##👩": 4934,
      "##０": 4935,
      "##て": 4936,
      "##👭": 4937,
      "##🏃": 4938,
      "##📅": 4939,
      "##⇩": 4940,
      "##판": 4941,
      "##リ": 4942,
      "##ュ": 4943,
      "##シ": 4944,
      "##ャ": 4945,
      "##ｐ": 4946,
      "##☹": 4947,
      "##ᗺ": 4948,
      "##ᗷ": 4949,
      "##ᗅ": 4950,
      "##💰": 4951,
      "##ッ": 4952,
      "##ピ": 4953,
      "##マ": 4954,
      "##デ": 4955,
      "##➚": 4956,
      "##홍": 4957,
      "##ן": 4958,
      "##প": 4959,
      "##ধ": 4960,
      "##🤪": 4961,
      "##ክ": 4962,
      "##ሲ": 4963,
      "##ె": 4964,
      "##ు": 4965,
      "##గ": 4966,
      "##😃": 4967,
      "##̒": 4968,
      "##🎨": 4969,
      "##🎭": 4970,
      "##🎬": 4971,
      "##🎮": 4972,
      "##🙋": 4973,
      "##🙆": 4974,
      "##ौ": 4975,
      "##광": 4976,
      "##₰": 4977,
      "##ϯ": 4978,
      "##그": 4979,
      "##내": 4980,
      "##ծ": 4981,
      "##😡": 4982,
      "##마": 4983,
      "##총": 4984,
      "##카": 4985,
      "##ż": 4986,
      "##▣": 4987,
      "##⛄": 4988,
      "##급": 4989,
      "##ވ": 4990,
      "##ޖ": 4991,
      "##ޭ": 4992,
      "##ގ": 4993,
      "##🌊": 4994,
      "##💣": 4995,
      "##ｄ": 4996,
      "##ł": 4997,
      "##청": 4998,
      "##💩": 4999,
      "##😷": 5000,
      "##🤮": 5001,
      "##ḍ": 5002,
      "##예": 5003,
      "##몽": 5004,
      "##ʝ": 5005,
      "##론": 5006,
      "##ী": 5007,
      "##ĩ": 5008,
      "##👏": 5009,
      "##ማ": 5010,
      "##ር": 5011,
      "##ኛ": 5012,
      "##ё": 5013,
      "##ǣ": 5014,
      "##z": 5015,
      "##🦁": 5016,
      "##➡": 5017,
      "##∏": 5018,
      "##향": 5019,
      "##ḫ": 5020,
      "##❣": 5021,
      "##귀": 5022,
      "##✺": 5023,
      "##̇": 5024,
      "##크": 5025,
      "##ؤ": 5026,
      "##ث": 5027,
      "##북": 5028,
      "##🤐": 5029,
      "##̷": 5030,
      "##복": 5031,
      "##👖": 5032,
      "##̯": 5033,
      "##작": 5034,
      "##₃": 5035,
      "##♢": 5036,
      "##౦": 5037,
      "##ส": 5038,
      "##ไ": 5039,
      "##ท": 5040,
      "##👎": 5041,
      "##훈": 5042,
      "##ȁ": 5043,
      "##🌍": 5044,
      "##🌴": 5045,
      "##🌞": 5046,
      "##ೆ": 5047,
      "##ಟ": 5048,
      "##べ": 5049,
      "##응": 5050,
      "##👬": 5051,
      "##ೈ": 5052,
      "##♉": 5053,
      "##전": 5054,
      "##⏪": 5055,
      "##글": 5056,
      "##♂": 5057,
      "##🎓": 5058,
      "##ώ": 5059,
      "##쌍": 5060,
      "##🕺": 5061,
      "##٠": 5062,
      "##ò": 5063,
      "##람": 5064,
      "##러": 5065,
      "##😫": 5066,
      "##친": 5067,
      "##ٛ": 5068,
      "##ĭ": 5069,
      "##ń": 5070,
      "##ಶ": 5071,
      "##チ": 5072,
      "##も": 5073,
      "##☀": 5074,
      "##침": 5075,
      "##῞": 5076,
      "##ę": 5077,
      "##ヶ": 5078,
      "##ᾶ": 5079,
      "##할": 5080,
      "##ތ": 5081,
      "##개": 5082,
      "##௨": 5083,
      "##허": 5084,
      "##₂": 5085,
      "##ま": 5086,
      "##す": 5087,
      "##ϟ": 5088,
      "##찬": 5089,
      "##소": 5090,
      "##ყ": 5091,
      "##ვ": 5092,
      "##ნ": 5093,
      "##심": 5094,
      "##ร": 5095,
      "##ค": 5096,
      "##ต": 5097,
      "##꾼": 5098,
      "##ꜣ": 5099,
      "##∇": 5100,
      "##👿": 5101,
      "##𑀔": 5102,
      "##𑁆": 5103,
      "##𑀲": 5104,
      "##𑀺": 5105,
      "##𑀮": 5106,
      "##𑀸": 5107,
      "##న": 5108,
      "##స": 5109,
      "##🎉": 5110,
      "##🎻": 5111,
      "##🥃": 5112,
      "##직": 5113,
      "##🔉": 5114,
      "##ḗ": 5115,
      "##㎡": 5116,
      "##🎤": 5117,
      "##℃": 5118,
      "##😓": 5119,
      "##レ": 5120,
      "##ビ": 5121,
      "##💧": 5122,
      "##জ": 5123,
      "##῝": 5124,
      "##릴": 5125,
      "##까": 5126,
      "##☠": 5127,
      "##😹": 5128,
      "##カ": 5129,
      "##ワ": 5130,
      "##ứ": 5131,
      "##ች": 5132,
      "##ላ": 5133,
      "##ለ": 5134,
      "##ህ": 5135,
      "##있": 5136,
      "##병": 5137,
      "##💻": 5138,
      "##혼": 5139,
      "##⋆": 5140,
      "##ᵝ": 5141,
      "##ꜜ": 5142,
      "##ਤ": 5143,
      "##ム": 5144,
      "##🛤": 5145,
      "##➟": 5146,
      "##қ": 5147,
      "##ү": 5148,
      "##🔅": 5149,
      "##∂": 5150,
      "##⠀": 5151,
      "##ℓ": 5152,
      "##남": 5153,
      "##길": 5154,
      "##⁸": 5155,
      "##🤠": 5156,
      "##𝗮": 5157,
      "##𝗹": 5158,
      "##໮": 5159,
      "##ན": 5160,
      "##🔸": 5161,
      "##ɵ": 5162,
      "##❇": 5163,
      "##족": 5164,
      "##ӂ": 5165,
      "##♬": 5166,
      "##ɫ": 5167,
      "##ঁ": 5168,
      "##ঠ": 5169,
      "##갱": 5170,
      "##ሉ": 5171,
      "##☝": 5172,
      "##역": 5173,
      "##ө": 5174,
      "##ὕ": 5175,
      "##텔": 5176,
      "##😈": 5177,
      "##ｂ": 5178,
      "##ｓ": 5179,
      "##◢": 5180,
      "##결": 5181,
      "##ര": 5182,
      "##മ": 5183,
      "##ള": 5184,
      "##െ": 5185,
      "##ޅ": 5186,
      "##ސ": 5187,
      "##준": 5188,
      "##ξ": 5189,
      "##ὶ": 5190,
      "##촬": 5191,
      "##슬": 5192,
      "##ᵻ": 5193,
      "##བ": 5194,
      "##≤": 5195,
      "##プ": 5196,
      "##🌱": 5197,
      "##ˇ": 5198,
      "##ˉ": 5199,
      "##ｈ": 5200,
      "##ｗ": 5201,
      "##ﻬ": 5202,
      "##ﺎ": 5203,
      "##ﻲ": 5204,
      "##ﻟ": 5205,
      "##🔒": 5206,
      "##등": 5207,
      "##롱": 5208,
      "##ው": 5209,
      "##♭": 5210,
      "##ḱ": 5211,
      "##￰": 5212,
      "##ץ": 5213,
      "##👦": 5214,
      "##్": 5215,
      "##ఞ": 5216,
      "##ా": 5217,
      "##게": 5218,
      "##💁": 5219,
      "##넟": 5220,
      "##غ": 5221,
      "##け": 5222,
      "##규": 5223,
      "##년": 5224,
      "##😰": 5225,
      "##ὺ": 5226,
      "##🎊": 5227,
      "##🎂": 5228,
      "##🤘": 5229,
      "##ҷ": 5230,
      "##ӣ": 5231,
      "##🖐": 5232,
      "##와": 5233,
      "##ˤ": 5234,
      "##해": 5235,
      "##😕": 5236,
      "##숭": 5237,
      "##📋": 5238,
      "##ۇ": 5239,
      "##چ": 5240,
      "##ە": 5241,
      "##루": 5242,
      "##👹": 5243,
      "##란": 5244,
      "##🎹": 5245,
      "##🎺": 5246,
      "##উ": 5247,
      "##๐": 5248,
      "##승": 5249,
      "##ಣ": 5250,
      "##ŗ": 5251,
      "##ņ": 5252,
      "##៉": 5253,
      "##ល": 5254,
      "##ナ": 5255,
      "##☞": 5256,
      "##ɴ": 5257,
      "##ረ": 5258,
      "##ዳ": 5259,
      "##ኝ": 5260,
      "##📷": 5261,
      "##🚙": 5262,
      "##้": 5263,
      "##์": 5264,
      "##ஏ": 5265,
      "##∗": 5266,
      "##🌏": 5267,
      "##ℂ": 5268,
      "##초": 5269,
      "##법": 5270,
      "##옹": 5271,
      "##ୋ": 5272,
      "##ଣ": 5273,
      "##ର": 5274,
      "##୍": 5275,
      "##କ": 5276,
      "##ň": 5277,
      "##팔": 5278,
      "##😠": 5279,
      "##ई": 5280,
      "##ፍ": 5281,
      "##ል": 5282,
      "##👄": 5283,
      "##ਮ": 5284,
      "##ਲ": 5285,
      "##🇳": 5286,
      "##😞": 5287,
      "##ṁ": 5288,
      "##막": 5289,
      "##ึ": 5290,
      "##̰": 5291,
      "##😮": 5292,
      "##ظ": 5293,
      "##ｕ": 5294,
      "##ဲ": 5295,
      "##득": 5296,
      "##🍖": 5297,
      "##명": 5298,
      "##𝐑": 5299,
      "##𝐈": 5300,
      "##𝐋": 5301,
      "##𝐀": 5302,
      "##𝐍": 5303,
      "##𝐊": 5304,
      "##ೇ": 5305,
      "##∆": 5306,
      "##❎": 5307,
      "##추": 5308,
      "##흥": 5309,
      "##ೊ": 5310,
      "##ಯ": 5311,
      "##ಬ": 5312,
      "##ಹ": 5313,
      "##ङ": 5314,
      "##ズ": 5315,
      "##↓": 5316,
      "##래": 5317,
      "##ะ": 5318,
      "##ਕ": 5319,
      "##훤": 5320,
      "##ℜ": 5321,
      "##∋": 5322,
      "##용": 5323,
      "##ŭ": 5324,
      "##̃": 5325,
      "##🎄": 5326,
      "##ध": 5327,
      "##᳘": 5328,
      "##👙": 5329,
      "##➖": 5330,
      "##𝐒": 5331,
      "##𝐄": 5332,
      "##☻": 5333,
      "##ర": 5334,
      "##ం": 5335,
      "##ధ": 5336,
      "##త": 5337,
      "##ి": 5338,
      "##😵": 5339,
      "##პ": 5340,
      "##ტ": 5341,
      "##შ": 5342,
      "##손": 5343,
      "##ຒ": 5344,
      "##➧": 5345,
      "##ῆ": 5346,
      "##ユ": 5347,
      "##キ": 5348,
      "##♕": 5349,
      "##ĵ": 5350,
      "##ĸ": 5351,
      "##မ": 5352,
      "##ာ": 5353,
      "##စ": 5354,
      "##ᠦ": 5355,
      "##ᠳ": 5356,
      "##ᠬ": 5357,
      "##ᠠ": 5358,
      "##ᠱ": 5359,
      "##ᠢ": 5360,
      "##ᠷ": 5361,
      "##ඎ": 5362,
      "##🙌": 5363,
      "##𝐌": 5364,
      "##𝐔": 5365,
      "##⏩": 5366,
      "##🌝": 5367,
      "##섯": 5368,
      "##۹": 5369,
      "##۷": 5370,
      "##𝘁": 5371,
      "##𝗿": 5372,
      "##✮": 5373,
      "##☣": 5374,
      "##발": 5375,
      "##령": 5376,
      "##약": 5377,
      "##メ": 5378,
      "##❓": 5379,
      "##ă": 5380,
      "##ħ": 5381,
      "##음": 5382,
      "##۱": 5383,
      "##➤": 5384,
      "##ꜥ": 5385,
      "##り": 5386,
      "##き": 5387,
      "##✋": 5388,
      "##෧": 5389,
      "##း": 5390,
      "##သ": 5391,
      "##်": 5392,
      "##့": 5393,
      "##🏘": 5394,
      "##໣": 5395,
      "##∫": 5396,
      "##ٴ": 5397,
      "##😥": 5398,
      "##ஓ": 5399,
      "##💸": 5400,
      "##쇄": 5401,
      "##🍢": 5402,
      "##타": 5403,
      "##❁": 5404,
      "##옥": 5405,
      "##미": 5406,
      "##변": 5407,
      "##🏦": 5408,
      "##표": 5409,
      "##โ": 5410,
      "##🚗": 5411,
      "##창": 5412,
      "##✊": 5413,
      "##ɜ": 5414,
      "##آ": 5415,
      "##വ": 5416,
      "##읓": 5417,
      "##ひ": 5418,
      "##ろ": 5419,
      "##💀": 5420,
      "##차": 5421,
      "##❔": 5422,
      "##ᱷ": 5423,
      "##ᱟ": 5424,
      "##ᱸ": 5425,
      "##ᱪ": 5426,
      "##본": 5427,
      "##참": 5428,
      "##👓": 5429,
      "##ｖ": 5430,
      "##ቅ": 5431,
      "##ታ": 5432,
      "##←": 5433,
      "##ӏ": 5434,
      "##☛": 5435,
      "##⚔": 5436,
      "##🍔": 5437,
      "##🏳": 5438,
      "##ี": 5439,
      "##욱": 5440,
      "##ɹ": 5441,
      "##ɝ": 5442,
      "##ဟ": 5443,
      "##ਦ": 5444,
      "##グ": 5445,
      "##민": 5446,
      "##ዬ": 5447,
      "##ট": 5448,
      "##ṉ": 5449,
      "##ṟ": 5450,
      "##ἀ": 5451,
      "##ḻ": 5452,
      "##ਵ": 5453,
      "##ੈ": 5454,
      "##😖": 5455,
      "##ի": 5456,
      "##հ": 5457,
      "##ա": 5458,
      "##լ": 5459,
      "##략": 5460,
      "##🇧": 5461,
      "##✓": 5462,
      "##オ": 5463,
      "##ᴥ": 5464,
      "##モ": 5465,
      "##ો": 5466,
      "##થ": 5467,
      "##લ": 5468,
      "##⦾": 5469,
      "##운": 5470,
      "##는": 5471,
      "##술": 5472,
      "##환": 5473,
      "##ਟ": 5474,
      "##ੇ": 5475,
      "##🤷": 5476,
      "##ⲏ": 5477,
      "##🍣": 5478,
      "##҆": 5479,
      "##ﾑ": 5480,
      "##셔": 5481,
      "##✡": 5482,
      "##겸": 5483,
      "##🏁": 5484,
      "##ਾ": 5485,
      "##▽": 5486,
      "##ٰ": 5487,
      "##🍷": 5488,
      "##🍸": 5489,
      "##🍺": 5490,
      "##▼": 5491,
      "##🎀": 5492,
      "##☂": 5493,
      "##ھ": 5494,
      "##ይ": 5495,
      "##ዋ": 5496,
      "##झ": 5497,
      "##💜": 5498,
      "##ੋ": 5499,
      "##☚": 5500,
      "##❃": 5501,
      "##🌒": 5502,
      "##효": 5503,
      "##📍": 5504,
      "##͆": 5505,
      "##ಪ": 5506,
      "##ৎ": 5507,
      "##완": 5508,
      "##̂": 5509,
      "##⚊": 5510,
      "##😗": 5511,
      "##ဇ": 5512,
      "##ည": 5513,
      "##ေ": 5514,
      "##̣": 5515,
      "##ڕ": 5516,
      "##০": 5517,
      "##ℯ": 5518,
      "##ʟ": 5519,
      "##℘": 5520,
      "##🌤": 5521,
      "##ך": 5522,
      "##₄": 5523,
      "##ġ": 5524,
      "##🌌": 5525,
      "##🚕": 5526,
      "##🚌": 5527,
      "##🚎": 5528,
      "##🏎": 5529,
      "##🚓": 5530,
      "##🚑": 5531,
      "##🚒": 5532,
      "##🚐": 5533,
      "##🚚": 5534,
      "##🚔": 5535,
      "##🚖": 5536,
      "##🎙": 5537,
      "##わ": 5538,
      "##ち": 5539,
      "##ゃ": 5540,
      "##ം": 5541,
      "##₁": 5542,
      "##🤨": 5543,
      "##🚛": 5544,
      "##ィ": 5545,
      "##ニ": 5546,
      "##🙁": 5547,
      "##ത": 5548,
      "##ć": 5549,
      "##ʾ": 5550,
      "##석": 5551,
      "##̀": 5552,
      "##₋": 5553,
      "##😶": 5554,
      "##ɥ": 5555,
      "##ǝ": 5556,
      "##ộ": 5557,
      "##𝐎": 5558,
      "##𝐃": 5559,
      "##𝐉": 5560,
      "##は": 5561,
      "##そ": 5562,
      "##෯": 5563,
      "##🎁": 5564,
      "##혀": 5565,
      "##๋": 5566,
      "##💚": 5567,
      "##🥲": 5568,
      "##🇮": 5569,
      "##🎥": 5570,
      "##ジ": 5571,
      "##ദ": 5572,
      "##ീ": 5573,
      "##🍯": 5574,
      "##❦": 5575,
      "##🐄": 5576,
      "##ゾ": 5577,
      "##애": 5578,
      "##˟": 5579,
      "##❌": 5580,
      "##🔊": 5581,
      "##۰": 5582,
      "##۴": 5583,
      "##ロ": 5584,
      "##륜": 5585,
      "##💃": 5586,
      "##က": 5587,
      "##ျ": 5588,
      "##ွ": 5589,
      "##င": 5590,
      "##ြ": 5591,
      "##ڌ": 5592,
      "##ქ": 5593,
      "##ს": 5594,
      "##ῇ": 5595,
      "##🏾": 5596,
      "##յ": 5597,
      "##ր": 5598,
      "##と": 5599,
      "##ढ": 5600,
      "##ᵿ": 5601,
      "##ֺ": 5602,
      "##❋": 5603,
      "##🌸": 5604,
      "##🍎": 5605,
      "##🍦": 5606,
      "##👽": 5607,
      "##🇿": 5608,
      "##ថ": 5609,
      "##ៃ": 5610,
      "##अ": 5611,
      "##ὲ": 5612,
      "##็": 5613,
      "##ソ": 5614,
      "##𝘀": 5615,
      "##𝗶": 5616,
      "##න්": 5617,
      "##ත්": 5618,
      "##ිය": 5619,
      "##ක්": 5620,
      "##න්න": 5621,
      "##ුව": 5622,
      "##ම්": 5623,
      "##ති": 5624,
      "##්ර": 5625,
      "##ස්": 5626,
      "##ෙන": 5627,
      "##යි": 5628,
      "##ාව": 5629,
      "වි": 5630,
      "##ල්": 5631,
      "##වා": 5632,
      "##ර්": 5633,
      "කර": 5634,
      "##ීම": 5635,
      "##ින්": 5636,
      "##ෙන්": 5637,
      "##තු": 5638,
      "##ිර": 5639,
      "##ගේ": 5640,
      "##ලා": 5641,
      "##ාර": 5642,
      "සි": 5643,
      "##ික": 5644,
      "##ැන": 5645,
      "##නය": 5646,
      "ප්ර": 5647,
      "##්ය": 5648,
      "##රු": 5649,
      "##මා": 5650,
      "කිය": 5651,
      "මේ": 5652,
      "එක": 5653,
      "නි": 5654,
      "##ාල": 5655,
      "##යේ": 5656,
      "##නා": 5657,
      "අප": 5658,
      "##දු": 5659,
      "##යක්": 5660,
      "##තා": 5661,
      "##ුණ": 5662,
      "මෙ": 5663,
      "##ිබ": 5664,
      "##තර": 5665,
      "##ින": 5666,
      "##න්නේ": 5667,
      "වෙ": 5668,
      "වැ": 5669,
      "##ිත": 5670,
      "##යා": 5671,
      "බව": 5672,
      "නැ": 5673,
      "දෙ": 5674,
      "හැ": 5675,
      "##දී": 5676,
      "##ද්": 5677,
      "##ිට": 5678,
      "කො": 5679,
      "##ක්ෂ": 5680,
      "##දා": 5681,
      "නො": 5682,
      "##ත්ත": 5683,
      "##ිව": 5684,
      "අව": 5685,
      "##ිස": 5686,
      "##හා": 5687,
      "පැ": 5688,
      "තිබ": 5689,
      "සහ": 5690,
      "##ිම": 5691,
      "##ිප": 5692,
      "##කු": 5693,
      "පු": 5694,
      "##සා": 5695,
      "##යට": 5696,
      "##ීමට": 5697,
      "##ල්ල": 5698,
      "##ාර්": 5699,
      "##ට්": 5700,
      "කළ": 5701,
      "##මු": 5702,
      "ගැන": 5703,
      "##ත්ව": 5704,
      "##යක": 5705,
      "##සු": 5706,
      "##නු": 5707,
      "##ියා": 5708,
      "ඇති": 5709,
      "වෙන": 5710,
      "කිර": 5711,
      "මහ": 5712,
      "##රි": 5713,
      "##රණ": 5714,
      "සිට": 5715,
      "දැ": 5716,
      "##යෙන්": 5717,
      "##වු": 5718,
      "පි": 5719,
      "සම": 5720,
      "##දි": 5721,
      "මා": 5722,
      "##කා": 5723,
      "පො": 5724,
      "වැඩ": 5725,
      "##ංග": 5726,
      "##න්ද": 5727,
      "##හු": 5728,
      "මු": 5729,
      "##රා": 5730,
      "##හි": 5731,
      "##සේ": 5732,
      "##වත්": 5733,
      "හා": 5734,
      "##වි": 5735,
      "##තාව": 5736,
      "කරන": 5737,
      "##ෙක්": 5738,
      "අන": 5739,
      "මම": 5740,
      "ක්ර": 5741,
      "වන": 5742,
      "##ලි": 5743,
      "තම": 5744,
      "තිය": 5745,
      "##කි": 5746,
      "##වර": 5747,
      "##යන්": 5748,
      "යු": 5749,
      "##හැ": 5750,
      "##ේශ": 5751,
      "##ත්ර": 5752,
      "අද": 5753,
      "සඳ": 5754,
      "##කට": 5755,
      "##ගෙන": 5756,
      "සං": 5757,
      "##ියේ": 5758,
      "##පු": 5759,
      "බල": 5760,
      "අතර": 5761,
      "##්ඩ": 5762,
      "බැ": 5763,
      "##රුව": 5764,
      "##ෙස": 5765,
      "නම්": 5766,
      "##බා": 5767,
      "##ැබ": 5768,
      "##හෙ": 5769,
      "##න්ත": 5770,
      "දු": 5771,
      "##ණ්ඩ": 5772,
      "ඔබ": 5773,
      "සම්": 5774,
      "එක්": 5775,
      "##වල": 5776,
      "පෙ": 5777,
      "වල": 5778,
      "තු": 5779,
      "වූ": 5780,
      "##මින්": 5781,
      "ලං": 5782,
      "කරන්න": 5783,
      "##තිය": 5784,
      "සු": 5785,
      "##නවා": 5786,
      "ස්": 5787,
      "නිසා": 5788,
      "හො": 5789,
      "##න්ට": 5790,
      "විශ": 5791,
      "ඔහු": 5792,
      "ලෙස": 5793,
      "##සි": 5794,
      "##වේ": 5795,
      "මට": 5796,
      "සා": 5797,
      "අය": 5798,
      "##ෙනවා": 5799,
      "##ද්ධ": 5800,
      "සැ": 5801,
      "කිරීම": 5802,
      "ශ්ර": 5803,
      "##ියට": 5804,
      "මො": 5805,
      "නෑ": 5806,
      "පිළ": 5807,
      "##මි": 5808,
      "##ාවේ": 5809,
      "කෙ": 5810,
      "##නේ": 5811,
      "##ුණු": 5812,
      "රා": 5813,
      "##ඩා": 5814,
      "ජන": 5815,
      "රට": 5816,
      "##කර": 5817,
      "##ධ්ය": 5818,
      "කාල": 5819,
      "මෙම": 5820,
      "##ාප": 5821,
      "##වස": 5822,
      "ඇත": 5823,
      "වගේ": 5824,
      "ගො": 5825,
      "##කාර": 5826,
      "වී": 5827,
      "කු": 5828,
      "සඳහා": 5829,
      "කල": 5830,
      "##ධා": 5831,
      "විස": 5832,
      "##පා": 5833,
      "##යු": 5834,
      "##ස්ස": 5835,
      "අපි": 5836,
      "##න්නෙ": 5837,
      "##තුව": 5838,
      "##වන": 5839,
      "##හන්": 5840,
      "##ැති": 5841,
      "##ෙකු": 5842,
      "ලබා": 5843,
      "දි": 5844,
      "කියලා": 5845,
      "කැ": 5846,
      "ලැබ": 5847,
      "සිය": 5848,
      "20": 5849,
      "එම": 5850,
      "##ච්": 5851,
      "විද": 5852,
      "පා": 5853,
      "##ලු": 5854,
      "ශ්රී": 5855,
      "කට": 5856,
      "ජා": 5857,
      "තර": 5858,
      "##ස්ථ": 5859,
      "ගන්න": 5860,
      "##ළු": 5861,
      "බො": 5862,
      "##න්ගේ": 5863,
      "##මක්": 5864,
      "##නි": 5865,
      "දී": 5866,
      "##හො": 5867,
      "##න්ධ": 5868,
      "අපේ": 5869,
      "##ුවන්": 5870,
      "##ගම": 5871,
      "##ුවේ": 5872,
      "##ව්": 5873,
      "##ීය": 5874,
      "##වැ": 5875,
      "විය": 5876,
      "දැන": 5877,
      "හිත": 5878,
      "##ාම": 5879,
      "##ැයි": 5880,
      "ඉද": 5881,
      "##තික": 5882,
      "##ණය": 5883,
      "යන": 5884,
      "වේ": 5885,
      "රාජ": 5886,
      "සමා": 5887,
      "##ීව": 5888,
      "හෝ": 5889,
      "##නම්": 5890,
      "අර": 5891,
      "දේ": 5892,
      "යුතු": 5893,
      "##හල": 5894,
      "##ත්ම": 5895,
      "විසින්": 5896,
      "##ටම": 5897,
      "සේ": 5898,
      "##දර": 5899,
      "එහෙ": 5900,
      "මත": 5901,
      "ගැ": 5902,
      "එය": 5903,
      "##ැනි": 5904,
      "අඩ": 5905,
      "##ත්ය": 5906,
      "ඒක": 5907,
      "කොට": 5908,
      "පසු": 5909,
      "පළ": 5910,
      "රැ": 5911,
      "පර": 5912,
      "##මණ": 5913,
      "##ත්තේ": 5914,
      "##ප්": 5915,
      "දෙන": 5916,
      "මි": 5917,
      "##ගන්න": 5918,
      "##ධිප": 5919,
      "ඔවු": 5920,
      "##වෙ": 5921,
      "ලංක": 5922,
      "ඉති": 5923,
      "##ුරු": 5924,
      "##තුරු": 5925,
      "එකක්": 5926,
      "##ගල": 5927,
      "සම්බ": 5928,
      "##ිනි": 5929,
      "දැන්": 5930,
      "##රට": 5931,
      "##යින්": 5932,
      "තමයි": 5933,
      "##ඩි": 5934,
      "##ධිපති": 5935,
      "##ටි": 5936,
      "හිට": 5937,
      "නිය": 5938,
      "නා": 5939,
      "##ගෙ": 5940,
      "දා": 5941,
      "නැති": 5942,
      "පිර": 5943,
      "මහතා": 5944,
      "මගේ": 5945,
      "##පාල": 5946,
      "දේශ": 5947,
      "##ාවක්": 5948,
      "ගෙ": 5949,
      "##ාවට": 5950,
      "##කො": 5951,
      "කිරීමට": 5952,
      "##හස්": 5953,
      "##ෝග": 5954,
      "ආර": 5955,
      "##දුව": 5956,
      "සම්බන්ධ": 5957,
      "විට": 5958,
      "##සර": 5959,
      "පෙර": 5960,
      "##මේ": 5961,
      "ප්රති": 5962,
      "##නයේ": 5963,
      "##රණය": 5964,
      "පහ": 5965,
      "##ඳු": 5966,
      "පිළිබ": 5967,
      "##ටු": 5968,
      "කා": 5969,
      "ඉන්න": 5970,
      "හර": 5971,
      "##ෂ්": 5972,
      "සිදු": 5973,
      "උප": 5974,
      "ඉදිර": 5975,
      "##ද්ද": 5976,
      "දින": 5977,
      "##වරයා": 5978,
      "හෙ": 5979,
      "කියල": 5980,
      "##ාය": 5981,
      "##ශ්": 5982,
      "##ිහ": 5983,
      "##ලේ": 5984,
      "පමණ": 5985,
      "##ච්ච": 5986,
      "##දේශ": 5987,
      "ගෙන": 5988,
      "ක්": 5989,
      "##නාධිපති": 5990,
      "##ුවට": 5991,
      "##ුවෙන්": 5992,
      "කටයු": 5993,
      "ඔය": 5994,
      "##ගත": 5995,
      "##කිය": 5996,
      "කතා": 5997,
      "හි": 5998,
      "ජනාධිපති": 5999,
      "##කින්": 6000,
      "වා": 6001,
      "කියන": 6002,
      "##ධාර": 6003,
      "ව්ය": 6004,
      "##ුණා": 6005,
      "201": 6006,
      "නැහැ": 6007,
      "ලිය": 6008,
      "##ගත්": 6009,
      "##වල්": 6010,
      "රජ": 6011,
      "##ියක්": 6012,
      "##කාශ": 6013,
      "##ොර": 6014,
      "හොඳ": 6015,
      "##ීමේ": 6016,
      "කිස": 6017,
      "මැ": 6018,
      "##වී": 6019,
      "පිට": 6020,
      "ඇතු": 6021,
      "##ෝජ": 6022,
      "##ෝක": 6023,
      "වර්": 6024,
      "හරි": 6025,
      "පිළිබඳ": 6026,
      "##න්නට": 6027,
      "##තුර": 6028,
      "අම": 6029,
      "##නයක්": 6030,
      "##කම්": 6031,
      "අත්": 6032,
      "##ඩ්": 6033,
      "ඕන": 6034,
      "ඇම": 6035,
      "##මට": 6036,
      "##මය": 6037,
      "ගොඩ": 6038,
      "කටයුතු": 6039,
      "ටික": 6040,
      "තව": 6041,
      "##මන්": 6042,
      "දක්": 6043,
      "වඩා": 6044,
      "ජීව": 6045,
      "හේ": 6046,
      "වසර": 6047,
      "නෙ": 6048,
      "එහි": 6049,
      "##ීන්": 6050,
      "##ග්": 6051,
      "##ද්ගල": 6052,
      "##ෙන්නේ": 6053,
      "##ංශ": 6054,
      "දෙක": 6055,
      "##ලිය": 6056,
      "තුළ": 6057,
      "##ණි": 6058,
      "##ිව්": 6059,
      "##ක්ක": 6060,
      "පත්": 6061,
      "##ත්වය": 6062,
      "හැකි": 6063,
      "##හොම": 6064,
      "##ගෙන්": 6065,
      "නව": 6066,
      "යන්න": 6067,
      "##ොත්": 6068,
      "පව": 6069,
      "##ශ්ය": 6070,
      "සිදුව": 6071,
      "##ම්බ": 6072,
      "ලො": 6073,
      "##තන": 6074,
      "##දෙන": 6075,
      "##ේෂ": 6076,
      "ලංකා": 6077,
      "වාර්": 6078,
      "අමා": 6079,
      "##ධාන": 6080,
      "වැඩි": 6081,
      "##00": 6082,
      "##තේ": 6083,
      "අනුව": 6084,
      "ක්රියා": 6085,
      "කළේ": 6086,
      "එහෙම": 6087,
      "වෙලා": 6088,
      "ප්රකාශ": 6089,
      "##ිරි": 6090,
      "අධ": 6091,
      "##ීම්": 6092,
      "වු": 6093,
      "අහ": 6094,
      "ජාතික": 6095,
      "ලෝක": 6096,
      "සමාජ": 6097,
      "පරි": 6098,
      "##ට්ට": 6099,
      "මුද": 6100,
      "##්ල": 6101,
      "##ද්ය": 6102,
      "අවස්ථ": 6103,
      "ආණ්ඩ": 6104,
      "පක්ෂ": 6105,
      "නී": 6106,
      "බවයි": 6107,
      "##භා": 6108,
      "සිටි": 6109,
      "කතාව": 6110,
      "##ාර්ය": 6111,
      "හැම": 6112,
      "##විය": 6113,
      "බවට": 6114,
      "ආය": 6115,
      "එක්ක": 6116,
      "##ින්ද": 6117,
      "පැමි": 6118,
      "විශ්": 6119,
      "##මුත්": 6120,
      "##ඩු": 6121,
      "අනු": 6122,
      "##වීම": 6123,
      "දේශපාල": 6124,
      "සමග": 6125,
      "තවත්": 6126,
      "විද්ය": 6127,
      "##ෝධ": 6128,
      "වෙන්න": 6129,
      "සිං": 6130,
      "හිම": 6131,
      "පුළ": 6132,
      "නිර්": 6133,
      "වෙත": 6134,
      "##වාස": 6135,
      "තිබේ": 6136,
      "ගත්": 6137,
      "බලා": 6138,
      "##ංච": 6139,
      "##න්ත්ර": 6140,
      "සො": 6141,
      "##රෙ": 6142,
      "ගිය": 6143,
      "##හෝ": 6144,
      "##මන": 6145,
      "##ත්මක": 6146,
      "කියා": 6147,
      "සිර": 6148,
      "##ංක": 6149,
      "##ණු": 6150,
      "කෙන": 6151,
      "##රිය": 6152,
      "##පත්": 6153,
      "##නව": 6154,
      "##වාද": 6155,
      "නමුත්": 6156,
      "යො": 6157,
      "##සුව": 6158,
      "ගත": 6159,
      "##ගිය": 6160,
      "##චාර": 6161,
      "ප්රශ්": 6162,
      "පාර්": 6163,
      "ලිප": 6164,
      "වලට": 6165,
      "මේක": 6166,
      "හද": 6167,
      "බු": 6168,
      "අවශ්ය": 6169,
      "අධ්ය": 6170,
      "නැත": 6171,
      "රු": 6172,
      "තී": 6173,
      "##පක්ෂ": 6174,
      "ඔවුන්": 6175,
      "##ුවත්": 6176,
      "දෙයක්": 6177,
      "ජීවිත": 6178,
      "##හන": 6179,
      "බොහෝ": 6180,
      "සඳහන්": 6181,
      "තියෙන": 6182,
      "උත්": 6183,
      "##සිය": 6184,
      "19": 6185,
      "තිබෙනවා": 6186,
      "කිව්": 6187,
      "##ුවක්": 6188,
      "##හාර": 6189,
      "වැනි": 6190,
      "මං": 6191,
      "නිල": 6192,
      "පුද්ගල": 6193,
      "##ක්ර": 6194,
      "##ීත": 6195,
      "##වර්": 6196,
      "විශේෂ": 6197,
      "##නයට": 6198,
      "##සන්": 6199,
      "මග": 6200,
      "නිද": 6201,
      "##කොට": 6202,
      "පාල": 6203,
      "මොක": 6204,
      "##ක්ෂණ": 6205,
      "ස්ථ": 6206,
      "ප්රදේශ": 6207,
      "සිටින": 6208,
      "##ෙන්ම": 6209,
      "##ෑම": 6210,
      "දෙන්න": 6211,
      "මාධ්ය": 6212,
      "අත": 6213,
      "ඒත්": 6214,
      "ජය": 6215,
      "තා": 6216,
      "ඇත්ත": 6217,
      "ඉතා": 6218,
      "##පති": 6219,
      "##වත": 6220,
      "##ලිම": 6221,
      "විතර": 6222,
      "##බ්": 6223,
      "පුළුවන්": 6224,
      "උද": 6225,
      "කී": 6226,
      "##ටන්": 6227,
      "##ුවා": 6228,
      "යට": 6229,
      "වීම": 6230,
      "බි": 6231,
      "සේව": 6232,
      "##වූ": 6233,
      "අමාත්ය": 6234,
      "##ලින්": 6235,
      "තේ": 6236,
      "ඉතින්": 6237,
      "ප්රධාන": 6238,
      "ලේ": 6239,
      "##මත්": 6240,
      "මිනි": 6241,
      "ජනතාව": 6242,
      "වෙනස්": 6243,
      "##ම්ප": 6244,
      "ගැනීමට": 6245,
      "මහා": 6246,
      "බවත්": 6247,
      "හැකිය": 6248,
      "##යකට": 6249,
      "අවුරු": 6250,
      "##ළඹ": 6251,
      "##ුණේ": 6252,
      "සිංහල": 6253,
      "ලංකාවේ": 6254,
      "##න්ය": 6255,
      "##ගය": 6256,
      "තියෙනවා": 6257,
      "##ූප": 6258,
      "වෙනුවෙන්": 6259,
      "භාව": 6260,
      "අධික": 6261,
      "ඊට": 6262,
      "තැන": 6263,
      "තමා": 6264,
      "දරුව": 6265,
      "ගා": 6266,
      "හේතුව": 6267,
      "ඇත්තේ": 6268,
      "##ල්ලා": 6269,
      "##ස්සේ": 6270,
      "ඇය": 6271,
      "මූ": 6272,
      "මී": 6273,
      "එකේ": 6274,
      "පාර": 6275,
      "ඔයා": 6276,
      "සෙ": 6277,
      "ලබ": 6278,
      "අස": 6279,
      "##ල්ප": 6280,
      "ඒවා": 6281,
      "##සක්": 6282,
      "ගැනීම": 6283,
      "සම්බන්ධයෙන්": 6284,
      "වෙනවා": 6285,
      "##මාණ": 6286,
      "##ේද": 6287,
      "පිරිස": 6288,
      "නායක": 6289,
      "ඉදිරිප": 6290,
      "හම": 6291,
      "කැම": 6292,
      "හමු": 6293,
      "කියන්නේ": 6294,
      "##වැනි": 6295,
      "කරලා": 6296,
      "##ිකා": 6297,
      "කරමින්": 6298,
      "පොල": 6299,
      "දිය": 6300,
      "##ළි": 6301,
      "##ලය": 6302,
      "බ්ල": 6303,
      "##ලට": 6304,
      "වෛ": 6305,
      "මෙහෙ": 6306,
      "ගණ": 6307,
      "කරන්නේ": 6308,
      "රාජ්ය": 6309,
      "වශ": 6310,
      "කියන්න": 6311,
      "##ර්ශ": 6312,
      "##කය": 6313,
      "##රය": 6314,
      "කණ්ඩ": 6315,
      "##ෙයි": 6316,
      "##ගැන": 6317,
      "##ර්ථ": 6318,
      "වන්නේ": 6319,
      "පැවැ": 6320,
      "කරනවා": 6321,
      "පාර්ලිම": 6322,
      "ගේ": 6323,
      "රටේ": 6324,
      "ව්යාප": 6325,
      "ඉන්": 6326,
      "කණ්ඩාය": 6327,
      "මාර්": 6328,
      "චි": 6329,
      "ක්රී": 6330,
      "වෙල": 6331,
      "අයි": 6332,
      "සමඟ": 6333,
      "##පිය": 6334,
      "##රුණ": 6335,
      "වශයෙන්": 6336,
      "සභ": 6337,
      "පාර්ලිමේ": 6338,
      "බ්ලො": 6339,
      "තොර": 6340,
      "##හර": 6341,
      "ඉහ": 6342,
      "##ස්ක": 6343,
      "විම": 6344,
      "##ග්ර": 6345,
      "රෝ": 6346,
      "ලද": 6347,
      "යා": 6348,
      "නිර": 6349,
      "##යේදී": 6350,
      "##දන": 6351,
      "වාර්තා": 6352,
      "අඩු": 6353,
      "වග": 6354,
      "##ලිස්": 6355,
      "##රේ": 6356,
      "දේශපාලන": 6357,
      "සාමා": 6358,
      "කළා": 6359,
      "##වලට": 6360,
      "නියම": 6361,
      "පවස": 6362,
      "සද": 6363,
      "අදහස්": 6364,
      "පැව": 6365,
      "කෝ": 6366,
      "එසේ": 6367,
      "පසුගිය": 6368,
      "##ම්ම": 6369,
      "ඉඩ": 6370,
      "ආරක්ෂ": 6371,
      "වර": 6372,
      "මහින්ද": 6373,
      "හිටපු": 6374,
      "දක්වා": 6375,
      "බෙ": 6376,
      "තිබු": 6377,
      "මැති": 6378,
      "චිත්ර": 6379,
      "##වරු": 6380,
      "කලා": 6381,
      "නික": 6382,
      "දන්න": 6383,
      "##දෙ": 6384,
      "##හිට": 6385,
      "##ැන්": 6386,
      "ඉදිරිපත්": 6387,
      "කොළඹ": 6388,
      "අපිට": 6389,
      "සතු": 6390,
      "##නෙ": 6391,
      "බලන්න": 6392,
      "##හිර": 6393,
      "##වර්ධ": 6394,
      "##ස්ට": 6395,
      "කිහ": 6396,
      "පොලිස්": 6397,
      "ආකාර": 6398,
      "නිලධාර": 6399,
      "මෙය": 6400,
      "##නායක": 6401,
      "එකට": 6402,
      "##තින්": 6403,
      "පිළි": 6404,
      "කිහිප": 6405,
      "ඔබට": 6406,
      "කාර්ය": 6407,
      "##වන්න": 6408,
      "##ප්ර": 6409,
      "කොහොම": 6410,
      "රාජපක්ෂ": 6411,
      "##කරුව": 6412,
      "වලින්": 6413,
      "මින": 6414,
      "ගි": 6415,
      "##කම": 6416,
      "අලු": 6417,
      "පසුව": 6418,
      "##ම්භ": 6419,
      "එන": 6420,
      "ආස": 6421,
      "එයා": 6422,
      "මන්ත්ර": 6423,
      "##ුත්": 6424,
      "බ්ලොග්": 6425,
      "##ිත්": 6426,
      "සැල": 6427,
      "පෙන": 6428,
      "මෙහි": 6429,
      "ගෙදර": 6430,
      "##ාත": 6431,
      "තරග": 6432,
      "සංවි": 6433,
      "පැමිණ": 6434,
      "අභ": 6435,
      "##සත්": 6436,
      "ස්ථා": 6437,
      "##තුමා": 6438,
      "සංග": 6439,
      "##කුණු": 6440,
      "දැක්": 6441,
      "වගේම": 6442,
      "##නත්": 6443,
      "තත්": 6444,
      "##ීමක්": 6445,
      "භා": 6446,
      "දේවල්": 6447,
      "##ඛ්ය": 6448,
      "##ුර": 6449,
      "ගමන්": 6450,
      "වෛද්ය": 6451,
      "පැහැ": 6452,
      "##ලක්": 6453,
      "කාර": 6454,
      "පත්ව": 6455,
      "##දිහ": 6456,
      "කෙනෙක්": 6457,
      "ආදර": 6458,
      "මිනිස්": 6459,
      "ඔබේ": 6460,
      "සියලු": 6461,
      "##ස්ත": 6462,
      "නග": 6463,
      "##ස්ථා": 6464,
      "##හන්සේ": 6465,
      "පරී": 6466,
      "දිග": 6467,
      "##විට": 6468,
      "තමන්": 6469,
      "##පට": 6470,
      "නොව": 6471,
      "##භාග": 6472,
      "කවු": 6473,
      "දවස": 6474,
      "අපට": 6475,
      "නැවත": 6476,
      "නොහැ": 6477,
      "##ක්රම": 6478,
      "ලොකු": 6479,
      "##සට": 6480,
      "උඹ": 6481,
      "ඉන්ද": 6482,
      "පාස": 6483,
      "මුදල්": 6484,
      "##ියාව": 6485,
      "ලා": 6486,
      "##රාධ": 6487,
      "අවුරුදු": 6488,
      "ගියා": 6489,
      "ආරම්භ": 6490,
      "##ූර්": 6491,
      "නීති": 6492,
      "##මයි": 6493,
      "අවසන්": 6494,
      "සී": 6495,
      "කරයි": 6496,
      "##ිසු": 6497,
      "##න්ව": 6498,
      "ඔහුගේ": 6499,
      "පිළිබඳව": 6500,
      "##වෙයි": 6501,
      "වෙයි": 6502,
      "කිරීමේ": 6503,
      "##ංචි": 6504,
      "පිහිට": 6505,
      "පැවැත්ව": 6506,
      "පිය": 6507,
      "##ිතා": 6508,
      "පී": 6509,
      "පවති": 6510,
      "නිදහස්": 6511,
      "##ධානය": 6512,
      "ලක්": 6513,
      "එහෙත්": 6514,
      "##ෙහි": 6515,
      "##සිං": 6516,
      "සමහර": 6517,
      "ගොඩක්": 6518,
      "මාස": 6519,
      "අන්ත": 6520,
      "##දිය": 6521,
      "##වාදී": 6522,
      "තරම්": 6523,
      "ඇවි": 6524,
      "##වද": 6525,
      "විර": 6526,
      "රෝග": 6527,
      "ලංකාව": 6528,
      "මීට": 6529,
      "පළා": 6530,
      "දිව": 6531,
      "ක්රම": 6532,
      "වට": 6533,
      "කාන්": 6534,
      "ගැට": 6535,
      "විශාල": 6536,
      "පමණක්": 6537,
      "##නට": 6538,
      "කඩ": 6539,
      "දුර": 6540,
      "##ස්තර": 6541,
      "සිටියේ": 6542,
      "සට": 6543,
      "බා": 6544,
      "කිසි": 6545,
      "එක්සත්": 6546,
      "මගින්": 6547,
      "කලින්": 6548,
      "##ෂණ": 6549,
      "##වරණ": 6550,
      "##දාළ": 6551,
      "##ස්ට්": 6552,
      "වැද": 6553,
      "එපා": 6554,
      "වුණා": 6555,
      "10": 6556,
      "යම්": 6557,
      "තියෙන්නේ": 6558,
      "නොම": 6559,
      "##නාව": 6560,
      "සොයා": 6561,
      "කි": 6562,
      "##ලික": 6563,
      "##සිංහ": 6564,
      "##ඩිය": 6565,
      "##ර්ජ": 6566,
      "තිබෙන": 6567,
      "ශි": 6568,
      "පටන්": 6569,
      "කම": 6570,
      "පෙන්": 6571,
      "ඉල්ල": 6572,
      "##තක": 6573,
      "වැට": 6574,
      "##ටත්": 6575,
      "##ෙනි": 6576,
      "සිද්ධ": 6577,
      "කෙසේ": 6578,
      "දැනු": 6579,
      "අදාළ": 6580,
      "ති": 6581,
      "##ච්ඡ": 6582,
      "##යෙක්": 6583,
      "ක්රියාත්මක": 6584,
      "හරහා": 6585,
      "විවි": 6586,
      "##න්ඩ": 6587,
      "##මාණය": 6588,
      "බැල": 6589,
      "චිත්රපට": 6590,
      "##යකින්": 6591,
      "සැක": 6592,
      "ඊයේ": 6593,
      "##ීන": 6594,
      "පොඩි": 6595,
      "එරෙ": 6596,
      "එන්න": 6597,
      "##කයන්": 6598,
      "##ගො": 6599,
      "විදිහ": 6600,
      "##වාහ": 6601,
      "මණ්ඩ": 6602,
      "##පත": 6603,
      "නොවේ": 6604,
      "නියෝජ": 6605,
      "##න්නා": 6606,
      "දෙප": 6607,
      "##හස": 6608,
      "විදු": 6609,
      "##වින්": 6610,
      "පෝ": 6611,
      "##වට": 6612,
      "බෑ": 6613,
      "ජී": 6614,
      "##නිම": 6615,
      "##ෝද": 6616,
      "##ෙත්": 6617,
      "අධ්යාප": 6618,
      "තුල": 6619,
      "බෝ": 6620,
      "##ත්රී": 6621,
      "සර": 6622,
      "ගහ": 6623,
      "සාක": 6624,
      "##නිල්": 6625,
      "අවස්ථාව": 6626,
      "මිල": 6627,
      "##වීමට": 6628,
      "රුපිය": 6629,
      "බස්": 6630,
      "මොකද": 6631,
      "හැබ": 6632,
      "##ියෙන්": 6633,
      "##හාස": 6634,
      "පවු": 6635,
      "පුල": 6636,
      "##මාර": 6637,
      "රථ": 6638,
      "හඳු": 6639,
      "මෙන්න": 6640,
      "එත": 6641,
      "##රටත්": 6642,
      "කාලය": 6643,
      "මිනිස්සු": 6644,
      "කොම": 6645,
      "##න්දු": 6646,
      "##ම්මා": 6647,
      "විශ්ව": 6648,
      "ඉහළ": 6649,
      "ත්ර": 6650,
      "ලබන": 6651,
      "ටිකක්": 6652,
      "##නී": 6653,
      "කරනු": 6654,
      "ගුවන්": 6655,
      "බැරි": 6656,
      "මධ්ය": 6657,
      "වැර": 6658,
      "මිය": 6659,
      "තෙ": 6660,
      "විදියට": 6661,
      "නම": 6662,
      "##නක්": 6663,
      "මතක": 6664,
      "##ෙකුට": 6665,
      "##දීම": 6666,
      "මාර්ග": 6667,
      "ඇතුළු": 6668,
      "##වර්ධන": 6669,
      "වහන්සේ": 6670,
      "විශ්වාස": 6671,
      "පැවස": 6672,
      "හොද": 6673,
      "ඉඳ": 6674,
      "සුදු": 6675,
      "##හුණ": 6676,
      "##ල්ලි": 6677,
      "උනා": 6678,
      "දව": 6679,
      "විවිධ": 6680,
      "අංශ": 6681,
      "පල": 6682,
      "##තී": 6683,
      "යැයි": 6684,
      "සූ": 6685,
      "කෑ": 6686,
      "සදහා": 6687,
      "තරුණ": 6688,
      "මෙන්ම": 6689,
      "මුල්": 6690,
      "දෙම": 6691,
      "##ංගුවට": 6692,
      "ග්ර": 6693,
      "ගිහ": 6694,
      "අන්": 6695,
      "දහ": 6696,
      "විරෝධ": 6697,
      "ඉවත්": 6698,
      "රුපියල්": 6699,
      "තොරතුරු": 6700,
      "වය": 6701,
      "##ෙන්නෙ": 6702,
      "##අඩ": 6703,
      "අගම": 6704,
      "ඡන්ද": 6705,
      "හැක": 6706,
      "##ෙන්න": 6707,
      "ගත්ත": 6708,
      "##රී": 6709,
      "##ියන්": 6710,
      "##රික": 6711,
      "අගමැති": 6712,
      "ගොස්": 6713,
      "##ලෝ": 6714,
      "##ටර්": 6715,
      "හු": 6716,
      "පුරා": 6717,
      "පවතින": 6718,
      "වෙන්නේ": 6719,
      "යෝජ": 6720,
      "වැදගත්": 6721,
      "ව්යාපාර": 6722,
      "##ේන": 6723,
      "නේද": 6724,
      "වෙනත්": 6725,
      "##ජන": 6726,
      "පස්සේ": 6727,
      "##හිව": 6728,
      "තීරණය": 6729,
      "මෛ": 6730,
      "විනා": 6731,
      "පුර": 6732,
      "ගිහින්": 6733,
      "යටතේ": 6734,
      "##ච්චි": 6735,
      "##ාවෙන්": 6736,
      "##ිකට්": 6737,
      "##න්තු": 6738,
      "##කුත්": 6739,
      "සිටිය": 6740,
      "හැබැයි": 6741,
      "##භාව": 6742,
      "##පය": 6743,
      "##බු": 6744,
      "##ස්ත්": 6745,
      "අත්අඩ": 6746,
      "ක්රිකට්": 6747,
      "තිබූ": 6748,
      "සහිත": 6749,
      "##ස්සෙ": 6750,
      "දැක": 6751,
      "##තියි": 6752,
      "ඇමති": 6753,
      "ආර්ථ": 6754,
      "සාකච්ඡ": 6755,
      "##ර්ම": 6756,
      "අයට": 6757,
      "##ත්න": 6758,
      "වෙළ": 6759,
      "මාර": 6760,
      "##ළුව": 6761,
      "නොවන": 6762,
      "ඔන්න": 6763,
      "##කෝ": 6764,
      "##ගාර": 6765,
      "රනිල්": 6766,
      "##දැ": 6767,
      "වසරේ": 6768,
      "සෞ": 6769,
      "අලුත්": 6770,
      "පැහැදි": 6771,
      "සාමාන්ය": 6772,
      "##ුවර": 6773,
      "##ශ්ර": 6774,
      "##තියක්": 6775,
      "පළාත්": 6776,
      "##දින": 6777,
      "උස": 6778,
      "යුතුය": 6779,
      "පැත්ත": 6780,
      "එල්ල": 6781,
      "කරගෙන": 6782,
      "ඇයි": 6783,
      "අත්අඩංගුවට": 6784,
      "පැමිණි": 6785,
      "දෙකක්": 6786,
      "කාලයක්": 6787,
      "ආර්ථික": 6788,
      "##බල": 6789,
      "අග": 6790,
      "පිරිසක්": 6791,
      "##වෘ": 6792,
      "##තනය": 6793,
      "යාම": 6794,
      "##පි": 6795,
      "##යකි": 6796,
      "2018": 6797,
      "බී": 6798,
      "ලි": 6799,
      "##ලෙ": 6800,
      "බලප": 6801,
      "කේ": 6802,
      "අති": 6803,
      "##න්ද්ර": 6804,
      "පොලිස": 6805,
      "කාන්තාව": 6806,
      "යනු": 6807,
      "ගන්නා": 6808,
      "එකම": 6809,
      "යෙ": 6810,
      "ගෝ": 6811,
      "මන්ත්රී": 6812,
      "##සික": 6813,
      "##ද්දී": 6814,
      "##දය": 6815,
      "12": 6816,
      "ආණ්ඩුව": 6817,
      "##වය": 6818,
      "##මුණ": 6819,
      "පළමු": 6820,
      "ප්රශ්න": 6821,
      "##ාර්ථ": 6822,
      "##ෂ්ඨ": 6823,
      "##ාලය": 6824,
      "##කළ": 6825,
      "##දනය": 6826,
      "විද්යා": 6827,
      "එකතු": 6828,
      "##කිර": 6829,
      "##කරන": 6830,
      "දෙදෙන": 6831,
      "ලේකම්": 6832,
      "යොමු": 6833,
      "##ීමෙන්": 6834,
      "එදා": 6835,
      "බ්ර": 6836,
      "මෝ": 6837,
      "##ියානු": 6838,
      "තිබ්": 6839,
      "සුව": 6840,
      "වූයේ": 6841,
      "යහ": 6842,
      "##කරු": 6843,
      "වච": 6844,
      "තන": 6845,
      "මාව": 6846,
      "##ච්චර": 6847,
      "නියමිත": 6848,
      "බර": 6849,
      "මැතිවරණ": 6850,
      "ව්යව": 6851,
      "උඩ": 6852,
      "පාර්ලිමේන්ත": 6853,
      "##වන්": 6854,
      "බුද්ධ": 6855,
      "නොහැකි": 6856,
      "තහ": 6857,
      "##ලී": 6858,
      "##යෙකු": 6859,
      "පුවත්": 6860,
      "විස්තර": 6861,
      "එරෙහිව": 6862,
      "පේ": 6863,
      "##ිමි": 6864,
      "කරුණු": 6865,
      "අවසා": 6866,
      "සියල්ල": 6867,
      "කළේය": 6868,
      "##ාවි": 6869,
      "##ලක": 6870,
      "පැවති": 6871,
      "වෙබ්": 6872,
      "එළ": 6873,
      "##ිසා": 6874,
      "තමන්ගේ": 6875,
      "හමුදා": 6876,
      "සිත": 6877,
      "ප්රදේශයේ": 6878,
      "පරීක්ෂණ": 6879,
      "ප්රා": 6880,
      "##ත්යා": 6881,
      "පුලුවන්": 6882,
      "සමාගම": 6883,
      "කරපු": 6884,
      "ක්රීඩ": 6885,
      "ගු": 6886,
      "15": 6887,
      "තිබුණ": 6888,
      "නොමැති": 6889,
      "##චාර්ය": 6890,
      "විදිහට": 6891,
      "කරගන්න": 6892,
      "හැර": 6893,
      "##ත්නම්": 6894,
      "ක්රීඩා": 6895,
      "කාලෙ": 6896,
      "##ේම": 6897,
      "##ක්ති": 6898,
      "##මාන": 6899,
      "තේරු": 6900,
      "ඉන්නවා": 6901,
      "හේතුවෙන්": 6902,
      "##ජ්": 6903,
      "##න්දර": 6904,
      "නෙවෙයි": 6905,
      "භාර": 6906,
      "ජනාධිපතිවරයා": 6907,
      "##ිස්": 6908,
      "කියන්නෙ": 6909,
      "ආහාර": 6910,
      "200": 6911,
      "##ූර්ණ": 6912,
      "ගීත": 6913,
      "දෙපාර්": 6914,
      "හමුව": 6915,
      "##දුරටත්": 6916,
      "යොදා": 6917,
      "##වලින්": 6918,
      "ගුණ": 6919,
      "ප්රමාණ": 6920,
      "උත්ස": 6921,
      "##ජා": 6922,
      "නැතුව": 6923,
      "සහභාග": 6924,
      "පිල": 6925,
      "ලස්ස": 6926,
      "නගර": 6927,
      "ඔක්": 6928,
      "ඔහුට": 6929,
      "##වාදය": 6930,
      "මෙරට": 6931,
      "ලිපි": 6932,
      "##යන": 6933,
      "ශා": 6934,
      "නිකුත්": 6935,
      "##ද්දි": 6936,
      "භාවිතා": 6937,
      "යනවා": 6938,
      "පද": 6939,
      "ජනපති": 6940,
      "ගත්තා": 6941,
      "විදේශ": 6942,
      "වීමට": 6943,
      "18": 6944,
      "##ප්ප": 6945,
      "##ාට": 6946,
      "##ෂ්ය": 6947,
      "බලාප": 6948,
      "රජය": 6949,
      "##ලියන": 6950,
      "වෙන්": 6951,
      "11": 6952,
      "ලක්ෂ": 6953,
      "නිර්මාණය": 6954,
      "රජයේ": 6955,
      "අනි": 6956,
      "කැමති": 6957,
      "වර්ග": 6958,
      "ඇත්තටම": 6959,
      "වැඩක්": 6960,
      "##ග්රහ": 6961,
      "සිරිස": 6962,
      "ඉක්": 6963,
      "මුහුණ": 6964,
      "උන්": 6965,
      "ඉස්ස": 6966,
      "පාර්ලිමේන්තු": 6967,
      "##පො": 6968,
      "##රෝ": 6969,
      "බොහොම": 6970,
      "නිෂ්": 6971,
      "ඉල්ලා": 6972,
      "පෙළ": 6973,
      "බලාපොර": 6974,
      "##තූ": 6975,
      "##කරුවන්": 6976,
      "බුදු": 6977,
      "දුම්": 6978,
      "පහර": 6979,
      "වුනා": 6980,
      "විජ": 6981,
      "දවස්": 6982,
      "කිසිම": 6983,
      "වාර්තාව": 6984,
      "ඔවුන්ගේ": 6985,
      "පූ": 6986,
      "##හල්": 6987,
      "ලියන්න": 6988,
      "දූ": 6989,
      "තෝ": 6990,
      "නේ": 6991,
      "##සාහ": 6992,
      "නොද": 6993,
      "##යෝ": 6994,
      "##යන්ට": 6995,
      "හිර": 6996,
      "බැහැ": 6997,
      "යුතුයි": 6998,
      "උත්සාහ": 6999,
      "හිමික": 7000,
      "##ලව": 7001,
      "හරියට": 7002,
      "පවා": 7003,
      "ඇතැයි": 7004,
      "භාවිත": 7005,
      "දෙපාර්ත": 7006,
      "අපරාධ": 7007,
      "වුව": 7008,
      "කථ": 7009,
      "කුඩා": 7010,
      "##ත්යන්": 7011,
      "කෘ": 7012,
      "##ාවන්": 7013,
      "##හෙන": 7014,
      "දැම": 7015,
      "ඔව්": 7016,
      "සෞඛ්ය": 7017,
      "ඇතුළ": 7018,
      "රැක": 7019,
      "තත්ත්ව": 7020,
      "වගක": 7021,
      "නිෂ්පා": 7022,
      "##ත්යන්තර": 7023,
      "මෙන්": 7024,
      "යයි": 7025,
      "රූප": 7026,
      "පරිදි": 7027,
      "##වුන්": 7028,
      "සිරිසේන": 7029,
      "බවද": 7030,
      "##යෙන්ම": 7031,
      "දෙපාර්තමේ": 7032,
      "ජාත්යන්තර": 7033,
      "පාසල්": 7034,
      "බලය": 7035,
      "සීම": 7036,
      "##රුන්": 7037,
      "තබා": 7038,
      "##ව්ය": 7039,
      "බහු": 7040,
      "##හේ": 7041,
      "##ුවෙ": 7042,
      "##වෙන": 7043,
      "ආප": 7044,
      "##නැ": 7045,
      "##ාවක": 7046,
      "නිර්මාණ": 7047,
      "ඉතිං": 7048,
      "අනේ": 7049,
      "හම්බ": 7050,
      "##ාලයේ": 7051,
      "ටෙ": 7052,
      "##සුම්": 7053,
      "යුද්ධ": 7054,
      "ඉස්සර": 7055,
      "##රිත": 7056,
      "බේ": 7057,
      "මන": 7058,
      "කරල": 7059,
      "වික්රම": 7060,
      "දැඩි": 7061,
      "හමුද": 7062,
      "##රෙන": 7063,
      "පොදු": 7064,
      "පාලනය": 7065,
      "ඇතැ": 7066,
      "කණ්ඩායම": 7067,
      "##පුර": 7068,
      "සංචාර": 7069,
      "තො": 7070,
      "වැඩේ": 7071,
      "වෘ": 7072,
      "ගියේ": 7073,
      "මිනිසු": 7074,
      "ඉතිහාස": 7075,
      "##ෆ්": 7076,
      "##කරණ": 7077,
      "##ඩියෝ": 7078,
      "දුන්": 7079,
      "පෞ": 7080,
      "##ිවෙ": 7081,
      "තියෙන්නෙ": 7082,
      "##තුරුව": 7083,
      "මෙසේ": 7084,
      "ලකුණු": 7085,
      "##සුන්": 7086,
      "##තම": 7087,
      "පියවර": 7088,
      "පවත්": 7089,
      "වැඩසට": 7090,
      "##සිර": 7091,
      "දෙනෙකු": 7092,
      "##ාවත්": 7093,
      "එල": 7094,
      "හැටි": 7095,
      "විතරයි": 7096,
      "දෙපාර්තමේන්ත": 7097,
      "##ාපති": 7098,
      "හිටිය": 7099,
      "කිසිදු": 7100,
      "මෛත්රී": 7101,
      "දෙමළ": 7102,
      "සම්ප": 7103,
      "තිබ්බ": 7104,
      "පහසු": 7105,
      "අධිකරණ": 7106,
      "එහිදී": 7107,
      "දෙස": 7108,
      "කල්": 7109,
      "වික": 7110,
      "කලේ": 7111,
      "##හොත්": 7112,
      "දො": 7113,
      "මණ්ඩල": 7114,
      "චරිත": 7115,
      "පර්": 7116,
      "කොහොමද": 7117,
      "කාලේ": 7118,
      "මරණ": 7119,
      "සින": 7120,
      "##සන": 7121,
      "රස": 7122,
      "අපේක්ෂ": 7123,
      "කරන්නට": 7124,
      "##ස්ත්රි": 7125,
      "අයත්": 7126,
      "දීම": 7127,
      "තැ": 7128,
      "හතර": 7129,
      "ඉන්නේ": 7130,
      "දිස්ත්රි": 7131,
      "ඇවිත්": 7132,
      "##තක්": 7133,
      "රෝහල": 7134,
      "ලැබෙන": 7135,
      "ලිපිය": 7136,
      "විපක්ෂ": 7137,
      "සංස්ක": 7138,
      "දෙනා": 7139,
      "##නයෙන්": 7140,
      "සෑම": 7141,
      "ඩො": 7142,
      "##ිසි": 7143,
      "ආගම": 7144,
      "දුරක": 7145,
      "සේවා": 7146,
      "ඉගෙන": 7147,
      "##කාරී": 7148,
      "ඉවර": 7149,
      "ඇර": 7150,
      "##ත්තා": 7151,
      "කෙල්ල": 7152,
      "##තරම්": 7153,
      "කොල්ල": 7154,
      "කට්ට": 7155,
      "මුලින්": 7156,
      "මාල": 7157,
      "##ෝදනා": 7158,
      "##තියේ": 7159,
      "##ණිය": 7160,
      "30": 7161,
      "පුරු": 7162,
      "භූ": 7163,
      "##වරුන්": 7164,
      "##මෙයි": 7165,
      "ක්ෂ": 7166,
      "##ාවල": 7167,
      "##කී": 7168,
      "##පැ": 7169,
      "ආරක්ෂක": 7170,
      "##ෝම": 7171,
      "මස": 7172,
      "පරා": 7173,
      "කර්": 7174,
      "ගත්තේ": 7175,
      "නැත්නම්": 7176,
      "කිසිව": 7177,
      "පන": 7178,
      "##ලත්": 7179,
      "##ලන්ත": 7180,
      "දක්ව": 7181,
      "නැග": 7182,
      "චෝදනා": 7183,
      "මුස්": 7184,
      "තිබුණා": 7185,
      "##ක්ෂණය": 7186,
      "පොලී": 7187,
      "##දානම්": 7188,
      "අමතක": 7189,
      "##ම්බර්": 7190,
      "කිව්වා": 7191,
      "වටි": 7192,
      "වුණ": 7193,
      "රැස්": 7194,
      "ලස්සන": 7195,
      "##ෂා": 7196,
      "##ගා": 7197,
      "ගෑ": 7198,
      "සැම": 7199,
      "තියන": 7200,
      "##ෙක": 7201,
      "මොකක්": 7202,
      "අනා": 7203,
      "අම්ම": 7204,
      "අසා": 7205,
      "නෙමෙයි": 7206,
      "##ණා": 7207,
      "යන්නේ": 7208,
      "විනාශ": 7209,
      "සභාපති": 7210,
      "මැද": 7211,
      "කියනවා": 7212,
      "පස්සෙ": 7213,
      "##ිකව": 7214,
      "මඟ": 7215,
      "අමතර": 7216,
      "ගමන": 7217,
      "බෞ": 7218,
      "##මනා": 7219,
      "##ේ": 7220,
      "##ලූ": 7221,
      "සංඛ්ය": 7222,
      "රි": 7223,
      "##ැත්ත": 7224,
      "ප්රහාර": 7225,
      "මොන": 7226,
      "තැන්": 7227,
      "සර්": 7228,
      "##දීය": 7229,
      "හැට": 7230,
      "නීතිය": 7231,
      "##ප්රිය": 7232,
      "ස්වා": 7233,
      "##යයි": 7234,
      "එවැනි": 7235,
      "##ඩුව": 7236,
      "කිහිපයක්": 7237,
      "##ොට": 7238,
      "විවාහ": 7239,
      "ජීවත්": 7240,
      "##ගොඩ": 7241,
      "සතුට": 7242,
      "##ගැනීමට": 7243,
      "මතක්": 7244,
      "සක": 7245,
      "ලාංක": 7246,
      "ඒකා": 7247,
      "ලංකාවට": 7248,
      "ඕනේ": 7249,
      "##ුම්": 7250,
      "ට්ර": 7251,
      "##ට්ය": 7252,
      "එතකොට": 7253,
      "බෞද්ධ": 7254,
      "අනිත්": 7255,
      "විරු": 7256,
      "සංවිධානය": 7257,
      "මුහු": 7258,
      "##ජික": 7259,
      "##මත": 7260,
      "##තුන්": 7261,
      "පෞද්ගල": 7262,
      "තත්ව": 7263,
      "ජීවිතය": 7264,
      "##බැ": 7265,
      "ඇතැම්": 7266,
      "වත්": 7267,
      "යි": 7268,
      "අමාර": 7269,
      "##ඳුම්": 7270,
      "අල්ල": 7271,
      "ලොව": 7272,
      "වටිනා": 7273,
      "##පිට": 7274,
      "හිමි": 7275,
      "##රිකා": 7276,
      "දක": 7277,
      "##ද්ර": 7278,
      "ළඟ": 7279,
      "පැන": 7280,
      "ඝාත": 7281,
      "##දේ": 7282,
      "උන": 7283,
      "බං": 7284,
      "කිව්ව": 7285,
      "පොර": 7286,
      "දැනට": 7287,
      "අමු": 7288,
      "ස්ව": 7289,
      "උදා": 7290,
      "ඉංග": 7291,
      "16": 7292,
      "සේවය": 7293,
      "මානව": 7294,
      "##න්ස": 7295,
      "##යකු": 7296,
      "##ිවි": 7297,
      "පුංචි": 7298,
      "අම්මා": 7299,
      "පෙන්වා": 7300,
      "##ොත්තු": 7301,
      "##ිසර": 7302,
      "බදු": 7303,
      "පවත්වා": 7304,
      "ආයතන": 7305,
      "තීරණ": 7306,
      "සාර්ථ": 7307,
      "##දර්ශ": 7308,
      "දාන්න": 7309,
      "13": 7310,
      "##ලිම්": 7311,
      "අන්ති": 7312,
      "අංක": 7313,
      "25": 7314,
      "##ින්ම": 7315,
      "##දුම": 7316,
      "සෑ": 7317,
      "බට": 7318,
      "##ඨා": 7319,
      "##දැක": 7320,
      "ප්රජ": 7321,
      "##කයා": 7322,
      "##ගි": 7323,
      "උසස්": 7324,
      "##දාය": 7325,
      "විතරක්": 7326,
      "ටී": 7327,
      "##ගැනීම": 7328,
      "ලෝකයේ": 7329,
      "මොහො": 7330,
      "නිවස": 7331,
      "මූලික": 7332,
      "මෙතන": 7333,
      "කියව": 7334,
      "සාර්ථක": 7335,
      "උපා": 7336,
      "දරුවන්": 7337,
      "තැබ": 7338,
      "##රැ": 7339,
      "පින්": 7340,
      "පක්ෂය": 7341,
      "කතාවක්": 7342,
      "කවුරු": 7343,
      "රෙ": 7344,
      "කොටස": 7345,
      "##න්තර": 7346,
      "අප්ර": 7347,
      "කාලයේ": 7348,
      "අවු": 7349,
      "##ොන්": 7350,
      "නාම": 7351,
      "සාමාජික": 7352,
      "##නිමින්": 7353,
      "කුමාර": 7354,
      "වීඩියෝ": 7355,
      "කරුණ": 7356,
      "විෂ": 7357,
      "සන්": 7358,
      "අධ්යාපන": 7359,
      "අවුරුද්ද": 7360,
      "ලෙ": 7361,
      "පක්ෂයේ": 7362,
      "කිව": 7363,
      "කාර්": 7364,
      "අමාත්යා": 7365,
      "මනු": 7366,
      "නර": 7367,
      "##මාර්": 7368,
      "මෙහෙම": 7369,
      "මෙවැනි": 7370,
      "ඔබගේ": 7371,
      "පවසයි": 7372,
      "අනතුරුව": 7373,
      "දිනය": 7374,
      "තත්ත්වය": 7375,
      "මුස්ලිම්": 7376,
      "යළි": 7377,
      "පැහැදිලි": 7378,
      "##සාර": 7379,
      "තියනවා": 7380,
      "සිල්": 7381,
      "වින": 7382,
      "මහත්ත": 7383,
      "කීප": 7384,
      "අමාත්යාංශ": 7385,
      "පිලිබ": 7386,
      "පස්": 7387,
      "කුමක්": 7388,
      "ජනතා": 7389,
      "සංස්කෘ": 7390,
      "##ිණි": 7391,
      "නිවැ": 7392,
      "දෙනෙක්": 7393,
      "මෙහිදී": 7394,
      "මෙත": 7395,
      "වීර": 7396,
      "පොත්": 7397,
      "##ග්රා": 7398,
      "නැතිව": 7399,
      "තේරුම්": 7400,
      "වික්රමසිංහ": 7401,
      "දකුණු": 7402,
      "##ර්ය": 7403,
      "හමුවේ": 7404,
      "##ංගු": 7405,
      "මල්": 7406,
      "අධ්යක්ෂ": 7407,
      "කම්": 7408,
      "අර්": 7409,
      "මේවා": 7410,
      "නාට්ය": 7411,
      "ලදී": 7412,
      "පොලිසිය": 7413,
      "සහය": 7414,
      "හරිම": 7415,
      "මුළු": 7416,
      "සම්පූර්ණ": 7417,
      "නිස": 7418,
      "සමු": 7419,
      "මන්": 7420,
      "##සී": 7421,
      "පෞද්ගලික": 7422,
      "දකි": 7423,
      "ආණ්ඩු": 7424,
      "තිබුණේ": 7425,
      "ගල්": 7426,
      "14": 7427,
      "##වේද": 7428,
      "##ධික": 7429,
      "පාලන": 7430,
      "##නිය": 7431,
      "වනවිට": 7432,
      "##ඹු": 7433,
      "බලාපොරොත්තු": 7434,
      "##ගම්": 7435,
      "##දීමට": 7436,
      "හිතු": 7437,
      "දුම්රිය": 7438,
      "##ඳි": 7439,
      "ගැනීමේ": 7440,
      "වයස": 7441,
      "ඇමැති": 7442,
      "##ෙම": 7443,
      "ක්රමය": 7444,
      "වනු": 7445,
      "##ට්ටම": 7446,
      "පණ": 7447,
      "මගෙ": 7448,
      "විරුද්ධ": 7449,
      "සල්ලි": 7450,
      "අත්දැක": 7451,
      "අන්තර්ජ": 7452,
      "##ල්ලක්": 7453,
      "##බර": 7454,
      "හට": 7455,
      "කොටස්": 7456,
      "සැබ": 7457,
      "අරන්": 7458,
      "අවස්ථාවේ": 7459,
      "##ිමට": 7460,
      "වෙන්නෙ": 7461,
      "##මී": 7462,
      "හෙට": 7463,
      "පියා": 7464,
      "තුන": 7465,
      "ව්යාපෘ": 7466,
      "ඇද": 7467,
      "වැඩිය": 7468,
      "##ගණ": 7469,
      "තවමත්": 7470,
      "හේතු": 7471,
      "##දව": 7472,
      "##ංගික": 7473,
      "දන්නේ": 7474,
      "කුස": 7475,
      "ඉදිරියේ": 7476,
      "නිලධාරීන්": 7477,
      "##ෝන්": 7478,
      "ඔවුන්ට": 7479,
      "##බි": 7480,
      "ලැබූ": 7481,
      "සුදුසු": 7482,
      "තමන්ට": 7483,
      "##න්වා": 7484,
      "ජනප්රිය": 7485,
      "දමා": 7486,
      "කැප": 7487,
      "තාම": 7488,
      "##සිද්ධ": 7489,
      "එකෙන්": 7490,
      "ගණන": 7491,
      "ආවේ": 7492,
      "සයි": 7493,
      "අනෙක්": 7494,
      "##ෂ්ට": 7495,
      "##යාගේ": 7496,
      "මමත්": 7497,
      "අනාගත": 7498,
      "වැරදි": 7499,
      "අපගේ": 7500,
      "මිස": 7501,
      "##ෑන්": 7502,
      "ලියා": 7503,
      "මිලියන": 7504,
      "තරඟ": 7505,
      "##වේදී": 7506,
      "ආව": 7507,
      "එයට": 7508,
      "කැබ": 7509,
      "උනත්": 7510,
      "ගනු": 7511,
      "යුද": 7512,
      "වර්ෂ": 7513,
      "අතුරු": 7514,
      "##ථම": 7515,
      "පෙන්න": 7516,
      "රටවල්": 7517,
      "වෘත්ත": 7518,
      "ලියන": 7519,
      "උතුරු": 7520,
      "වුණේ": 7521,
      "##ේත්ර": 7522,
      "කොමිස": 7523,
      "17": 7524,
      "##විද්ය": 7525,
      "##දුර": 7526,
      "ජල": 7527,
      "ගොඩනැ": 7528,
      "##දුම්": 7529,
      "ඒකට": 7530,
      "##ිකර": 7531,
      "සහෝ": 7532,
      "අරගෙන": 7533,
      "ආවා": 7534,
      "වරද": 7535,
      "##දුරු": 7536,
      "##දෙස්": 7537,
      "දර්ශ": 7538,
      "හැකියාව": 7539,
      "දාලා": 7540,
      "##ගුණ": 7541,
      "##සාද": 7542,
      "සංවර්ධන": 7543,
      "##ංස": 7544,
      "සංවිධා": 7545,
      "100": 7546,
      "##දාන": 7547,
      "##හුණු": 7548,
      "##හැර": 7549,
      "##ෂණය": 7550,
      "පෙරේ": 7551,
      "ආදරය": 7552,
      "ඉහත": 7553,
      "##හ්": 7554,
      "රො": 7555,
      "වෙතත්": 7556,
      "##ස්තු": 7557,
      "හදා": 7558,
      "ආයතනය": 7559,
      "වෙලාව": 7560,
      "කාම": 7561,
      "වැනිදා": 7562,
      "##ලන": 7563,
      "ප්රතිඵ": 7564,
      "ක්ෂේත්ර": 7565,
      "දැක්ක": 7566,
      "##්රී": 7567,
      "නු": 7568,
      "##සූ": 7569,
      "##කරණය": 7570,
      "ඉදිරියට": 7571,
      "පෙනී": 7572,
      "හින්": 7573,
      "සභා": 7574,
      "දැනුම්": 7575,
      "සත්ය": 7576,
      "##ෙස්": 7577,
      "ඔක්කො": 7578,
      "##වක්": 7579,
      "අදාල": 7580,
      "සල": 7581,
      "##තාවය": 7582,
      "##ෙල්": 7583,
      "##සය": 7584,
      "##ජිත්": 7585,
      "මහජන": 7586,
      "පට": 7587,
      "##වුරු": 7588,
      "මෙල": 7589,
      "ප්රතිචාර": 7590,
      "නං": 7591,
      "ශිෂ්ය": 7592,
      "##ක්තිය": 7593,
      "දුක": 7594,
      "ආසන්න": 7595,
      "හොයා": 7596,
      "##වීමේ": 7597,
      "ඕක": 7598,
      "කිරීමෙන්": 7599,
      "සුප": 7600,
      "##ත්ති": 7601,
      "##බද්ධ": 7602,
      "පද්ධ": 7603,
      "දුව": 7604,
      "ඕනෑම": 7605,
      "මත්": 7606,
      "ස්ථාන": 7607,
      "##වෘත": 7608,
      "##ෙන්ට්": 7609,
      "##තුම්": 7610,
      "වස": 7611,
      "වාහන": 7612,
      "##කල": 7613,
      "රිය": 7614,
      "ක්රියාව": 7615,
      "පදි": 7616,
      "වර්ධ": 7617,
      "අතින්": 7618,
      "තියා": 7619,
      "සිහ": 7620,
      "වෙලාවට": 7621,
      "##මුව": 7622,
      "##ජාප": 7623,
      "බැවින්": 7624,
      "##ලර්": 7625,
      "කත": 7626,
      "මන්ද": 7627,
      "එමෙන්ම": 7628,
      "කමිට": 7629,
      "තෝරා": 7630,
      "උපදෙස්": 7631,
      "දීමට": 7632,
      "##ැක්": 7633,
      "##ත්වයෙන්": 7634,
      "සටහන්": 7635,
      "ඉල": 7636,
      "නොකර": 7637,
      "##ශ්ච": 7638,
      "මට්ටම": 7639,
      "##ාරූප": 7640,
      "අමතරව": 7641,
      "##වීම්": 7642,
      "ඇස්": 7643,
      "##ල්ය": 7644,
      "නිවැර": 7645,
      "එජාප": 7646,
      "හඳුනා": 7647,
      "##ගත්ත": 7648,
      "##ෑම්": 7649,
      "##ිකාව": 7650,
      "##ල්ලේ": 7651,
      "##රුම": 7652,
      "දායක": 7653,
      "ගිණු": 7654,
      "බටහිර": 7655,
      "තිර": 7656,
      "විවෘත": 7657,
      "##බෝධ": 7658,
      "යෝජනා": 7659,
      "ඇගේ": 7660,
      "##බර්": 7661,
      "කියයි": 7662,
      "ද්ර": 7663,
      "නියෝග": 7664,
      "හිතා": 7665,
      "2017": 7666,
      "##ස්කෝ": 7667,
      "වියද": 7668,
      "##හට": 7669,
      "ධර්ම": 7670,
      "##කදී": 7671,
      "අමාත්යවරයා": 7672,
      "වන්න": 7673,
      "රටට": 7674,
      "රණ": 7675,
      "ලැබේ": 7676,
      "සූදානම්": 7677,
      "මිනිසුන්": 7678,
      "හැටියට": 7679,
      "අනාව": 7680,
      "ජයග්රහ": 7681,
      "ජනතාවට": 7682,
      "මාත": 7683,
      "##දාම": 7684,
      "24": 7685,
      "නැද්ද": 7686,
      "අක්": 7687,
      "මුලින්ම": 7688,
      "කළු": 7689,
      "රංග": 7690,
      "එසේම": 7691,
      "##යන්ගේ": 7692,
      "##රුණු": 7693,
      "හොඳම": 7694,
      "පහත": 7695,
      "සිල්වා": 7696,
      "##ශෝධ": 7697,
      "සෝ": 7698,
      "අනිවා": 7699,
      "පැය": 7700,
      "පාවි": 7701,
      "වෙමින්": 7702,
      "දෙවන": 7703,
      "වචන": 7704,
      "එතන": 7705,
      "##ටා": 7706,
      "##ිපාල": 7707,
      "දුන්නේ": 7708,
      "##ුන": 7709,
      "විමර්ශ": 7710,
      "දක්ෂ": 7711,
      "සදහන්": 7712,
      "ප්රශ්නය": 7713,
      "ඡාය": 7714,
      "සියළු": 7715,
      "වඩාත්": 7716,
      "දුරකථ": 7717,
      "පොඩ": 7718,
      "විදුලි": 7719,
      "මච": 7720,
      "##ස්ම": 7721,
      "දිස්ත්රික්ක": 7722,
      "ඉටු": 7723,
      "අරමුණ": 7724,
      "හෙළ": 7725,
      "හිමිකම්": 7726,
      "විශ්වවිද්ය": 7727,
      "සමාජය": 7728,
      "සංගීත": 7729,
      "##ෙට": 7730,
      "විභාග": 7731,
      "සාකච්ඡා": 7732,
      "මටත්": 7733,
      "අඩවිය": 7734,
      "ආකාරය": 7735,
      "ඉන්දිය": 7736,
      "තෙල්": 7737,
      "දන්නවා": 7738,
      "පරාජ": 7739,
      "##ක්ස්": 7740,
      "##ගැ": 7741,
      "000": 7742,
      "තාත්තා": 7743,
      "කියවන්න": 7744,
      "ඉදිරි": 7745,
      "##ිප්": 7746,
      "බෙදා": 7747,
      "අස්": 7748,
      "බැංක": 7749,
      "මහේ": 7750,
      "ඉංග්රී": 7751,
      "තුන්": 7752,
      "සුබ": 7753,
      "එස්": 7754,
      "මහතාගේ": 7755,
      "සැර": 7756,
      "තවදුරටත්": 7757,
      "මුල": 7758,
      "##ිල්": 7759,
      "##ස්ට්ර": 7760,
      "##සීම": 7761,
      "2015": 7762,
      "යැ": 7763,
      "පත්ර": 7764,
      "ණය": 7765,
      "##මාන්ත": 7766,
      "සුළු": 7767,
      "තුව": 7768,
      "නිතර": 7769,
      "##ලිව": 7770,
      "ඔයාල": 7771,
      "සමත්": 7772,
      "මාත්": 7773,
      "කථා": 7774,
      "සංශෝධ": 7775,
      "##ිට්": 7776,
      "සෙන": 7777,
      "පිහිටි": 7778,
      "ඉන්දීය": 7779,
      "##දුන්": 7780,
      "මාන": 7781,
      "##නාගාර": 7782,
      "වෙළඳ": 7783,
      "මතු": 7784,
      "##කූ": 7785,
      "වැටු": 7786,
      "කෑම": 7787,
      "##ශී": 7788,
      "ශිල්ප": 7789,
      "වෙඩි": 7790,
      "දිනයේ": 7791,
      "කන්න": 7792,
      "හිටියා": 7793,
      "##මෙන්": 7794,
      "ගන්නවා": 7795,
      "රැගෙන": 7796,
      "සිදුවන": 7797,
      "සහෝදර": 7798,
      "ඔක්කොම": 7799,
      "##රිකානු": 7800,
      "බණ්ඩ": 7801,
      "ප්රථම": 7802,
      "චී": 7803,
      "අඩව": 7804,
      "රහ": 7805,
      "##ිවිසු": 7806,
      "පරීක්ෂ": 7807,
      "ආචාර්ය": 7808,
      "රේ": 7809,
      "##ධාරණ": 7810,
      "දෙපාර්තමේන්තුව": 7811,
      "නිම": 7812,
      "දැනුවත්": 7813,
      "කරන්නෙ": 7814,
      "පිළිතුරු": 7815,
      "##තාවක්": 7816,
      "පැවැති": 7817,
      "පොත": 7818,
      "දිගටම": 7819,
      "අදහස": 7820,
      "ඇහ": 7821,
      "ලාංකික": 7822,
      "ප්රසිද්ධ": 7823,
      "##ලයක්": 7824,
      "ස්තු": 7825,
      "සාක්ෂ": 7826,
      "උත්තර": 7827,
      "නිව": 7828,
      "ලිංගික": 7829,
      "දෙවිය": 7830,
      "ව්යවස්ථ": 7831,
      "##ලාව": 7832,
      "අයියා": 7833,
      "##කාල": 7834,
      "අවධානය": 7835,
      "මොනව": 7836,
      "කෙරෙ": 7837,
      "හොර": 7838,
      "පවත්ව": 7839,
      "වාර": 7840,
      "පුදුම": 7841,
      "##ෙකුත්": 7842,
      "කවද": 7843,
      "එනම්": 7844,
      "දර": 7845,
      "ස්ට": 7846,
      "බන්ධ": 7847,
      "පාඩ": 7848,
      "ගැල": 7849,
      "ගුරුව": 7850,
      "ඒකාබද්ධ": 7851,
      "යුත්තේ": 7852,
      "ඇඟ": 7853,
      "පරිසර": 7854,
      "ජේ": 7855,
      "වතුර": 7856,
      "අතීත": 7857,
      "##පද": 7858,
      "වැඩසටහන": 7859,
      "දුන්න": 7860,
      "අල": 7861,
      "යාප": 7862,
      "පරිගණ": 7863,
      "##කල්ප": 7864,
      "කවුද": 7865,
      "කිරි": 7866,
      "උනේ": 7867,
      "මෙහෙයු": 7868,
      "විහාර": 7869,
      "වර්ත": 7870,
      "බැඳ": 7871,
      "ත්රස්ත": 7872,
      "##මාත්ය": 7873,
      "නැත්ත": 7874,
      "##ර්ණ": 7875,
      "මධ්යම": 7876,
      "ඝාතනය": 7877,
      "රෑ": 7878,
      "වෙනුවට": 7879,
      "ඔයාට": 7880,
      "වුවත්": 7881,
      "පහළ": 7882,
      "##ිනවා": 7883,
      "##ෂන්": 7884,
      "##දුරුව": 7885,
      "##ත්තු": 7886,
      "පොලීසිය": 7887,
      "සකස්": 7888,
      "ප්රතිකාර": 7889,
      "කල්ප": 7890,
      "හොඳයි": 7891,
      "පර්යේ": 7892,
      "අයිතිය": 7893,
      "ඡායාරූප": 7894,
      "එහෙන": 7895,
      "කැඳ": 7896,
      "බහුතර": 7897,
      "පෝස්ට්": 7898,
      "තාක්ෂණ": 7899,
      "එම්": 7900,
      "එනවා": 7901,
      "සිදුවූ": 7902,
      "මව": 7903,
      "නුවර": 7904,
      "කව": 7905,
      "ඇතුළත්": 7906,
      "සමර": 7907,
      "දවසක්": 7908,
      "අධිකාර": 7909,
      "උදේ": 7910,
      "මෛත්රීපාල": 7911,
      "ජීවිතේ": 7912,
      "ඇඳ": 7913,
      "සිද්ධිය": 7914,
      "ස්ථානය": 7915,
      "කර්මාන්ත": 7916,
      "අවබෝධ": 7917,
      "ගන්නේ": 7918,
      "පාවිච්චි": 7919,
      "පාඨ": 7920,
      "යාල": 7921,
      "සිටියා": 7922,
      "සුර": 7923,
      "ප්රවෘ": 7924,
      "තද": 7925,
      "අකු": 7926,
      "නියෝජ්ය": 7927,
      "ආයත": 7928,
      "සෙට්": 7929,
      "අග්රා": 7930,
      "ඔස්සේ": 7931,
      "පාට": 7932,
      "50": 7933,
      "##යාට": 7934,
      "හඬ": 7935,
      "දිහා": 7936,
      "##ෙකි": 7937,
      "මොනවා": 7938,
      "කාට": 7939,
      "##මුඛ": 7940,
      "##ගින්": 7941,
      "හොය": 7942,
      "දෙනවා": 7943,
      "ශ්රේ": 7944,
      "කරා": 7945,
      "තත්වය": 7946,
      "21": 7947,
      "ලැ": 7948,
      "ගණන්": 7949,
      "##දාස": 7950,
      "අන්තර්": 7951,
      "##ියම්": 7952,
      "නිරත": 7953,
      "තහනම්": 7954,
      "ඉතාම": 7955,
      "සටහන": 7956,
      "##වෙනි": 7957,
      "විවේ": 7958,
      "අග්රාමාත්ය": 7959,
      "ස්තූ": 7960,
      "අධ්යාපනය": 7961,
      "ලෝකය": 7962,
      "ගම": 7963,
      "##න්දුව": 7964,
      "ඉක්මන": 7965,
      "බිරි": 7966,
      "##ළඟ": 7967,
      "පවසා": 7968,
      "මෙලෙස": 7969,
      "බණ්ඩාර": 7970,
      "නිවාස": 7971,
      "##ිලා": 7972,
      "බරපත": 7973,
      "මණ්ඩලය": 7974,
      "ඉහල": 7975,
      "##ගන්නා": 7976,
      "අට": 7977,
      "හිටියේ": 7978,
      "මොකක්ද": 7979,
      "වේද": 7980,
      "ගෙන්": 7981,
      "##නුවර": 7982,
      "හෙවත්": 7983,
      "##ුම": 7984,
      "මානසික": 7985,
      "##ට්ටු": 7986,
      "##ාගේ": 7987,
      "වුනේ": 7988,
      "##ෙමි": 7989,
      "විද්යාල": 7990,
      "අයිති": 7991,
      "ආකාරයට": 7992,
      "හැඟ": 7993,
      "ශරී": 7994,
      "ආණ්ඩුවේ": 7995,
      "පොළ": 7996,
      "##ක්ෂිත": 7997,
      "##කඩ": 7998,
      "මහත්ම": 7999,
      "ඩී": 8000,
      "කැබින": 8001,
      "##යෝජ": 8002,
      "දුන්නා": 8003,
      "පොඩ්ඩ": 8004,
      "##ස්තුව": 8005,
      "අවස්ථා": 8006,
      "ජනවා": 8007,
      "ජාති": 8008,
      "##කයින්": 8009,
      "##සින්": 8010,
      "සියලුම": 8011,
      "##ූර": 8012,
      "ගිවිසු": 8013,
      "කන": 8014,
      "පුතා": 8015,
      "ළමයි": 8016,
      "ප්රශ්නයක්": 8017,
      "එකඟ": 8018,
      "නොස": 8019,
      "##රත්න": 8020,
      "##ිමත්": 8021,
      "උදව්": 8022,
      "##ැම්බර්": 8023,
      "නාව": 8024,
      "බය": 8025,
      "##යුතු": 8026,
      "කඩා": 8027,
      "අනතුර": 8028,
      "ආර්": 8029,
      "ප්රේම": 8030,
      "බලන": 8031,
      "වහා": 8032,
      "කට්ටිය": 8033,
      "##්යා": 8034,
      "ප්රජාත": 8035,
      "කෙරෙන": 8036,
      "උත්සව": 8037,
      "ගුරු": 8038,
      "භාණ්ඩ": 8039,
      "##යික": 8040,
      "22": 8041,
      "##මැ": 8042,
      "නිළ": 8043,
      "කඳු": 8044,
      "වුනත්": 8045,
      "##ියු": 8046,
      "කෙටි": 8047,
      "තිබිය": 8048,
      "##නික": 8049,
      "ආදී": 8050,
      "##ික්": 8051,
      "සිනමා": 8052,
      "ඉස්කෝ": 8053,
      "අතට": 8054,
      "ප්රජාතන්ත්ර": 8055,
      "මධ්යස්ථා": 8056,
      "ආරක්ෂා": 8057,
      "මංග": 8058,
      "පවසනවා": 8059,
      "##යත්": 8060,
      "තහවුරු": 8061,
      "නිවා": 8062,
      "පිලිබඳ": 8063,
      "එක්ව": 8064,
      "සහභාගී": 8065,
      "ස්වභාව": 8066,
      "ඇයට": 8067,
      "ආදරේ": 8068,
      "බයි": 8069,
      "කොච්චර": 8070,
      "##ෂික": 8071,
      "සැබෑ": 8072,
      "ලේඛ": 8073,
      "භාෂ": 8074,
      "##දැයි": 8075,
      "කැබිනට්": 8076,
      "සින්": 8077,
      "සභාව": 8078,
      "##ංකු": 8079,
      "දිවයි": 8080,
      "මන්ත්රීව": 8081,
      "ගම්": 8082,
      "බන්ධනාගාර": 8083,
      "##ේස්": 8084,
      "භූම": 8085,
      "##විරි": 8086,
      "සංවර්ධ": 8087,
      "##හරු": 8088,
      "අයිය": 8089,
      "යාමට": 8090,
      "පන්ත": 8091,
      "##ියෝග": 8092,
      "සටන්": 8093,
      "අළු": 8094,
      "ජිව": 8095,
      "##ිටි": 8096,
      "සාධ": 8097,
      "අපහ": 8098,
      "ගිනි": 8099,
      "##න්ති": 8100,
      "නිලධාරී": 8101,
      "වංච": 8102,
      "ආදාය": 8103,
      "අමාරු": 8104,
      "##න්දේ": 8105,
      "නඩු": 8106,
      "##විර": 8107,
      "නමින්": 8108,
      "අවම": 8109,
      "මරා": 8110,
      "සමී": 8111,
      "බඩ": 8112,
      "තොරව": 8113,
      "වැඩිදුරටත්": 8114,
      "මහත්": 8115,
      "දෙන්නේ": 8116,
      "##වරණය": 8117,
      "තුවාල": 8118,
      "##ංගම": 8119,
      "කමක්": 8120,
      "ඕනෙ": 8121,
      "හෙළි": 8122,
      "දිනා": 8123,
      "ඉන්දියාව": 8124,
      "ආපු": 8125,
      "##ශා": 8126,
      "කැමැත්ත": 8127,
      "##විප": 8128,
      "බොරු": 8129,
      "##ංජ": 8130,
      "අවි": 8131,
      "චන්ද්ර": 8132,
      "පීඩ": 8133,
      "විජේ": 8134,
      "කොහෙ": 8135,
      "හිරු": 8136,
      "ප්රාදේශ": 8137,
      "##ඬුව": 8138,
      "පිණ": 8139,
      "දියුණු": 8140,
      "බැර": 8141,
      "වෙච්ච": 8142,
      "##ප්පු": 8143,
      "##වුම්": 8144,
      "ඇමෙ": 8145,
      "ඔහොම": 8146,
      "##ජ්ය": 8147,
      "##නක": 8148,
      "##ලුව": 8149,
      "හැසිර": 8150,
      "තිබුණු": 8151,
      "වර්ධනය": 8152,
      "##ළෙ": 8153,
      "##පේ": 8154,
      "හමුදාව": 8155,
      "ගනිමින්": 8156,
      "නිසි": 8157,
      "ක්රි": 8158,
      "##ලම": 8159,
      "කොර": 8160,
      "එයින්": 8161,
      "##ිවර්": 8162,
      "රත්": 8163,
      "හැකියි": 8164,
      "##ිනී": 8165,
      "##බිම": 8166,
      "අර්ථ": 8167,
      "මෙවර": 8168,
      "##තල්": 8169,
      "##ගහ": 8170,
      "තාත්ත": 8171,
      "වැළ": 8172,
      "එකත්": 8173,
      "ඇමරික": 8174,
      "පමණි": 8175,
      "එකයි": 8176,
      "දෑ": 8177,
      "කිව්වේ": 8178,
      "ඕනෑ": 8179,
      "##ක්ත": 8180,
      "නොවැ": 8181,
      "කවි": 8182,
      "අප්": 8183,
      "##විල්": 8184,
      "වේග": 8185,
      "##පෙන": 8186,
      "සිටියේය": 8187,
      "සතුටු": 8188,
      "වුවද": 8189,
      "පහසුකම්": 8190,
      "සමාන": 8191,
      "##හරණ": 8192,
      "##භය": 8193,
      "##ව්වා": 8194,
      "##තට": 8195,
      "පරිගණක": 8196,
      "පාර්ලිමේන්තුවේ": 8197,
      "ගල": 8198,
      "අගය": 8199,
      "##ිරා": 8200,
      "##පන්": 8201,
      "ගිහි": 8202,
      "##දායක": 8203,
      "##කේ": 8204,
      "බිහ": 8205,
      "තිබුන": 8206,
      "පිණිස": 8207,
      "සභාවේ": 8208,
      "##ජීව": 8209,
      "##ණයක්": 8210,
      "##හසක්": 8211,
      "ප්රතිප": 8212,
      "##ිකිර": 8213,
      "නිදහස": 8214,
      "යුග": 8215,
      "සහතික": 8216,
      "##හම": 8217,
      "අවසානයේ": 8218,
      "නතර": 8219,
      "තුනක්": 8220,
      "##තුම": 8221,
      "පෙම්": 8222,
      "එව": 8223,
      "පැති": 8224,
      "සුභ": 8225,
      "බලාගෙන": 8226,
      "තිබුනා": 8227,
      "හැමෝම": 8228,
      "ප්රමාණයක්": 8229,
      "ලඟ": 8230,
      "ලී": 8231,
      "ඩොලර්": 8232,
      "එහෙනම්": 8233,
      "##ූරු": 8234,
      "ගෞ": 8235,
      "නියෝජනය": 8236,
      "තිබුනේ": 8237,
      "තිබුණි": 8238,
      "සති": 8239,
      "ඉස්": 8240,
      "හිතේ": 8241,
      "සැලසුම්": 8242,
      "සහභාගි": 8243,
      "රටවල": 8244,
      "පිටු": 8245,
      "සිතුව": 8246,
      "පෙරමුණ": 8247,
      "නාවික": 8248,
      "සුන්දර": 8249,
      "##ලො": 8250,
      "දේශීය": 8251,
      "රැසක්": 8252,
      "සීමා": 8253,
      "23": 8254,
      "##ිලි": 8255,
      "හිතන්නේ": 8256,
      "##දිව": 8257,
      "එල්": 8258,
      "එකෙක්": 8259,
      "ප්රබල": 8260,
      "##ක්කු": 8261,
      "කොයි": 8262,
      "අභියෝග": 8263,
      "ශක්ති": 8264,
      "රන්": 8265,
      "##දන්": 8266,
      "මිතුර": 8267,
      "පුහුණු": 8268,
      "ඉන්නෙ": 8269,
      "බිරිඳ": 8270,
      "කුරු": 8271,
      "පැට": 8272,
      "##ාත්මක": 8273,
      "ගමේ": 8274,
      "##රුවන්": 8275,
      "විඳ": 8276,
      "කඩු": 8277,
      "නියෝජිත": 8278,
      "වාස": 8279,
      "##රයේ": 8280,
      "වළ": 8281,
      "වරා": 8282,
      "යමක්": 8283,
      "මෙතෙක්": 8284,
      "ලිපියක්": 8285,
      "නැගෙන": 8286,
      "ප්රිය": 8287,
      "##මන්ත්": 8288,
      "ජනවාරි": 8289,
      "පෙරේරා": 8290,
      "සිදුකර": 8291,
      "අතරින්": 8292,
      "##ත්තිය": 8293,
      "බිම": 8294,
      "පැවසීය": 8295,
      "##සිරි": 8296,
      "##හැන": 8297,
      "සත්": 8298,
      "ගරු": 8299,
      "අවසාන": 8300,
      "මනුස්ස": 8301,
      "හිස": 8302,
      "##මුද": 8303,
      "අර්බු": 8304,
      "පිරිමි": 8305,
      "##සේකර": 8306,
      "පහල": 8307,
      "##මාර්ග": 8308,
      "ආයු": 8309,
      "##ගු": 8310,
      "තිබෙන්නේ": 8311,
      "හොඳින්": 8312,
      "ඉංග්රීසි": 8313,
      "කීවේ": 8314,
      "##වයි": 8315,
      "බ්රිතා": 8316,
      "වත්ම": 8317,
      "##ජනය": 8318,
      "රච": 8319,
      "සංඛ්යාව": 8320,
      "මහාචාර්ය": 8321,
      "##ස්ට්රේ": 8322,
      "යුතුව": 8323,
      "දිනවල": 8324,
      "සම්මාන": 8325,
      "පවුලේ": 8326,
      "බාර": 8327,
      "හැමදාම": 8328,
      "වෙළෙ": 8329,
      "##රිම": 8330,
      "අනික": 8331,
      "199": 8332,
      "##මානය": 8333,
      "සන්න": 8334,
      "බිඳ": 8335,
      "ගැටු": 8336,
      "ආගමික": 8337,
      "සලක": 8338,
      "යහපාල": 8339,
      "මඟින්": 8340,
      "සිසුන්": 8341,
      "නොල": 8342,
      "කළමනා": 8343,
      "සිටින්නේ": 8344,
      "##ගී": 8345,
      "මෑ": 8346,
      "බ්රිතාන්ය": 8347,
      "දන්නෙ": 8348,
      "##විරිදි": 8349,
      "දීලා": 8350,
      "තුළින්": 8351,
      "අම්": 8352,
      "ගන්නට": 8353,
      "01": 8354,
      "නෝ": 8355,
      "නිවැරදි": 8356,
      "ප්රාදේශීය": 8357,
      "අවසර": 8358,
      "##තුංග": 8359,
      "වේවා": 8360,
      "නැවතත්": 8361,
      "##ත්වයක්": 8362,
      "දෙදෙනා": 8363,
      "කණ්ඩායම්": 8364,
      "වාහ": 8365,
      "##වීර": 8366,
      "බැංකු": 8367,
      "කිරීම්": 8368,
      "##රාල්": 8369,
      "##ියක": 8370,
      "උපාධ": 8371,
      "##පොළ": 8372,
      "##තියට": 8373,
      "කාර්යාල": 8374,
      "කෙරෙහි": 8375,
      "##ේප": 8376,
      "කණ": 8377,
      "මර්": 8378,
      "දම": 8379,
      "ලැබු": 8380,
      "සමස්ත": 8381,
      "##ිනේ": 8382,
      "පවත්වාගෙන": 8383,
      "##වෙලා": 8384,
      "තරු": 8385,
      "ඉන්දියාවේ": 8386,
      "ලැබී": 8387,
      "සහා": 8388,
      "අපහසු": 8389,
      "ප්රචාර": 8390,
      "ඉඩම්": 8391,
      "මැයි": 8392,
      "බාල": 8393,
      "යුරෝ": 8394,
      "දුක්": 8395,
      "ගී": 8396,
      "රාත්ර": 8397,
      "##බී": 8398,
      "පුද්ගලයන්": 8399,
      "##ශක": 8400,
      "වත්මන්": 8401,
      "පැවැත්වෙන": 8402,
      "රජු": 8403,
      "විදෙස්": 8404,
      "දඬුව": 8405,
      "198": 8406,
      "ආශ්ර": 8407,
      "කමෙන්ට්": 8408,
      "ෆේස්": 8409,
      "ප්රමාණය": 8410,
      "##ෙලා": 8411,
      "##ලන්": 8412,
      "හිමිව": 8413,
      "මර": 8414,
      "පර්යේෂණ": 8415,
      "2016": 8416,
      "එතුමා": 8417,
      "##ූහ": 8418,
      "ඇප": 8419,
      "පරණ": 8420,
      "රටක්": 8421,
      "හැවිරිදි": 8422,
      "##ලයේ": 8423,
      "උළෙ": 8424,
      "##කිරීම": 8425,
      "ජ්ය": 8426,
      "##ගත්තා": 8427,
      "මුදලක්": 8428,
      "අහන්න": 8429,
      "වුණත්": 8430,
      "මල": 8431,
      "කප": 8432,
      "එන්": 8433,
      "මහනුවර": 8434,
      "ප්රවෘත්ති": 8435,
      "පොල්": 8436,
      "##රුවා": 8437,
      "##ගමනය": 8438,
      "තිබිණි": 8439,
      "ප්රමුඛ": 8440,
      "ඉඳන්": 8441,
      "වෘත්තීය": 8442,
      "කලාප": 8443,
      "රැකියා": 8444,
      "කවදාවත්": 8445,
      "ඇස": 8446,
      "කුණු": 8447,
      "කරුණා": 8448,
      "පොහො": 8449,
      "පාප": 8450,
      "සුපිරි": 8451,
      "දැනුම": 8452,
      "ස්තුතියි": 8453,
      "ගන": 8454,
      "##ට්ර": 8455,
      "පවතී": 8456,
      "දාල": 8457,
      "මළ": 8458,
      "රැකිය": 8459,
      "යනුවෙන්": 8460,
      "පලා": 8461,
      "##යින්ට": 8462,
      "සංවිධාන": 8463,
      "දන්නා": 8464,
      "දෙවැනි": 8465,
      "වෙනි": 8466,
      "ළමා": 8467,
      "##ිතව": 8468,
      "##ශය": 8469,
      "26": 8470,
      "##ෝගික": 8471,
      "##තය": 8472,
      "##ෂධ": 8473,
      "##ියෙක්": 8474,
      "විධා": 8475,
      "සම්පත්": 8476,
      "##ියෝ": 8477,
      "##ුවන": 8478,
      "ප්රස": 8479,
      "කිලෝ": 8480,
      "මඩ": 8481,
      "අනෙකුත්": 8482,
      "##ත්රා": 8483,
      "බාහිර": 8484,
      "##ව්ව": 8485,
      "##බේ": 8486,
      "##ජු": 8487,
      "ස්තූතියි": 8488,
      "උණු": 8489,
      "##ද්රව්ය": 8490,
      "පැරණ": 8491,
      "පාර්ලිමේන්තුව": 8492,
      "සබ": 8493,
      "##ල්ලට": 8494,
      "වැඩිම": 8495,
      "##ිමින්": 8496,
      "හැඳ": 8497,
      "පවුල්": 8498,
      "ගෞර": 8499,
      "ඉතිරි": 8500,
      "ජලය": 8501,
      "කඳ": 8502,
      "සමාජයේ": 8503,
      "තර්ජ": 8504,
      "උතුර": 8505,
      "දේව": 8506,
      "ප්රේ": 8507,
      "කියපු": 8508,
      "ව්යා": 8509,
      "ආයෝජ": 8510,
      "##ට්ඨා": 8511,
      "##ද්දේ": 8512,
      "27": 8513,
      "එන්නේ": 8514,
      "වෙනසක්": 8515,
      "සම්මත": 8516,
      "##කමක්": 8517,
      "ප්රතික්ෂ": 8518,
      "උපන්": 8519,
      "පොඩ්ඩක්": 8520,
      "ජූ": 8521,
      "කියලයි": 8522,
      "අත්දැකීම්": 8523,
      "රඟ": 8524,
      "##ාවා": 8525,
      "මූල්ය": 8526,
      "මෝටර්": 8527,
      "දිසා": 8528,
      "බවය": 8529,
      "දුර්": 8530,
      "සහයෝග": 8531,
      "එහා": 8532,
      "වුන": 8533,
      "හය": 8534,
      "මුහුදු": 8535,
      "වගෙ": 8536,
      "කටු": 8537,
      "විධායක": 8538,
      "28": 8539,
      "පුරවැ": 8540,
      "හිතන්න": 8541,
      "ඉලක්ක": 8542,
      "උද්": 8543,
      "දේශපාලනය": 8544,
      "භි": 8545,
      "ආරක්ෂාව": 8546,
      "කාන්තා": 8547,
      "සාධාරණ": 8548,
      "හැකිව": 8549,
      "පත": 8550,
      "##ක්කේ": 8551,
      "ජනතාවගේ": 8552,
      "බිය": 8553,
      "උදාහරණ": 8554,
      "කරග": 8555,
      "මිනිසා": 8556,
      "වනවා": 8557,
      "උපරිම": 8558,
      "ආරාධ": 8559,
      "පත්තර": 8560,
      "බෙහෙ": 8561,
      "##ෝෂ": 8562,
      "ප්රදර්ශ": 8563,
      "වරක්": 8564,
      "පමණයි": 8565,
      "හාමු": 8566,
      "රූපවාහ": 8567,
      "විසි": 8568,
      "විවේච": 8569,
      "කෙළ": 8570,
      "තබ": 8571,
      "197": 8572,
      "හැද": 8573,
      "##වනම්": 8574,
      "වන්නට": 8575,
      "කල්පනා": 8576,
      "##වශ්ය": 8577,
      "##මික": 8578,
      "පුව": 8579,
      "වෙනම": 8580,
      "වෙළෙඳ": 8581,
      "පහු": 8582,
      "අන්ද": 8583,
      "හොඳට": 8584,
      "##ස්ත්රා": 8585,
      "නිවසේ": 8586,
      "මෘ": 8587,
      "##ලෙන්": 8588,
      "##්ලා": 8589,
      "හින්දා": 8590,
      "##ස්සු": 8591,
      "කොටසක්": 8592,
      "පුද්ගලයින්": 8593,
      "දැනගන්න": 8594,
      "කොට්ඨා": 8595,
      "සැප": 8596,
      "##රයක්": 8597,
      "ඉතිහාසය": 8598,
      "විෂය": 8599,
      "ව්යාපාරික": 8600,
      "රෝහල්": 8601,
      "විරෝධී": 8602,
      "##ප්ත": 8603,
      "දක්නට": 8604,
      "සිහි": 8605,
      "අහිමි": 8606,
      "ඩි": 8607,
      "විචාර": 8608,
      "##න්වහන්සේ": 8609,
      "##ර්ඝ": 8610,
      "##ධාරණය": 8611,
      "දකින": 8612,
      "පුද්ගලයා": 8613,
      "සිටී": 8614,
      "ව්යවස්ථා": 8615,
      "යහපත්": 8616,
      "ඖෂධ": 8617,
      "දරුවා": 8618,
      "##කුට": 8619,
      "කුසලා": 8620,
      "##ිරිය": 8621,
      "##න්දා": 8622,
      "##න්විත": 8623,
      "ප්රතික්ෂේප": 8624,
      "තරගාවල": 8625,
      "තියෙනව": 8626,
      "කොළ": 8627,
      "මාර්ගය": 8628,
      "##සෙ": 8629,
      "දොර": 8630,
      "වියදම්": 8631,
      "ජයග්රහණය": 8632,
      "##නන්ද": 8633,
      "රූ": 8634,
      "පිව": 8635,
      "ඉව": 8636,
      "##පස": 8637,
      "බන්": 8638,
      "සිදුකළ": 8639,
      "එංග": 8640,
      "ඒව": 8641,
      "එරෙහි": 8642,
      "රතු": 8643,
      "හී": 8644,
      "සාහි": 8645,
      "චීන": 8646,
      "##මයේ": 8647,
      "ක්රියාකාර": 8648,
      "භික්ෂ": 8649,
      "වහ": 8650,
      "මල්ලි": 8651,
      "විහි": 8652,
      "නැගෙනහිර": 8653,
      "කණ්ඩායමේ": 8654,
      "සමහරු": 8655,
      "නිසාය": 8656,
      "මංගල": 8657,
      "පුරුදු": 8658,
      "##ීමත්": 8659,
      "පරිවර්": 8660,
      "යෑ": 8661,
      "ධාව": 8662,
      "දෙය": 8663,
      "අනාවරණය": 8664,
      "ලක්ෂණ": 8665,
      "00": 8666,
      "නඩ": 8667,
      "ජු": 8668,
      "කෙරේ": 8669,
      "රෝහලේ": 8670,
      "ශක්තිය": 8671,
      "අලි": 8672,
      "ජෝ": 8673,
      "සෙල්ල": 8674,
      "හදන්න": 8675,
      "##ාන්": 8676,
      "##ත්තර": 8677,
      "විමර්ශන": 8678,
      "හැමෝ": 8679,
      "විද්යාව": 8680,
      "පසුගියදා": 8681,
      "##ිශ": 8682,
      "වෙනකොට": 8683,
      "නංග": 8684,
      "හෝට": 8685,
      "##ෙකුගේ": 8686,
      "කොටි": 8687,
      "නොකළ": 8688,
      "වර්ණ": 8689,
      "සංගමය": 8690,
      "මාරු": 8691,
      "##ටුව": 8692,
      "කරදර": 8693,
      "මහතාට": 8694,
      "##මුණු": 8695,
      "##ලනිප": 8696,
      "##ඞ්": 8697,
      "අන්තිමට": 8698,
      "විශේෂයෙන්": 8699,
      "##පෙ": 8700,
      "ගැස": 8701,
      "යාලුව": 8702,
      "07": 8703,
      "බවක්": 8704,
      "එකතුව": 8705,
      "සරස": 8706,
      "නිවේ": 8707,
      "ආක": 8708,
      "චන්ද": 8709,
      "පන්ස": 8710,
      "නවක": 8711,
      "ද්රව්ය": 8712,
      "විධ": 8713,
      "##වීමක්": 8714,
      "ඇතිව": 8715,
      "##යිට්": 8716,
      "වනදා": 8717,
      "ආපහු": 8718,
      "තේර": 8719,
      "##වෙන්නේ": 8720,
      "ඡන්දය": 8721,
      "එංගලන්ත": 8722,
      "##හුව": 8723,
      "ජවිප": 8724,
      "හැඳින්": 8725,
      "##සිල්": 8726,
      "##වරුවේ": 8727,
      "පදනම්": 8728,
      "ජංගම": 8729,
      "##හරි": 8730,
      "දැක්වූ": 8731,
      "විමු": 8732,
      "සිවිල්": 8733,
      "දුරකථන": 8734,
      "##ිටිය": 8735,
      "සරත්": 8736,
      "##ෂ්ඨා": 8737,
      "##ද්යා": 8738,
      "ආණ්ඩුවට": 8739,
      "මෙහෙය": 8740,
      "තිස්සේ": 8741,
      "ටෙස්ට්": 8742,
      "මාතෘ": 8743,
      "ගස්": 8744,
      "පරාජය": 8745,
      "ධන": 8746,
      "යන්නෙ": 8747,
      "ආධාර": 8748,
      "නරක": 8749,
      "සේනා": 8750,
      "කවුරුත්": 8751,
      "නිසාම": 8752,
      "මිලදී": 8753,
      "රටක": 8754,
      "අලෙ": 8755,
      "ප්රතිඵල": 8756,
      "05": 8757,
      "##තල": 8758,
      "පැරණි": 8759,
      "##ංශය": 8760,
      "හිතට": 8761,
      "##පුරු": 8762,
      "නිෂ්පාදන": 8763,
      "අරගල": 8764,
      "වහාම": 8765,
      "අධිකරණය": 8766,
      "##000": 8767,
      "උපු": 8768,
      "එවිට": 8769,
      "දත්ත": 8770,
      "##බෝ": 8771,
      "ධුර": 8772,
      "මුණ": 8773,
      "මස්": 8774,
      "##ෙන්නට": 8775,
      "ප්රනා": 8776,
      "අන්න": 8777,
      "පැවැත්වීමට": 8778,
      "අල්ලා": 8779,
      "තැනක්": 8780,
      "බලමු": 8781,
      "ගණනක්": 8782,
      "නොවෙයි": 8783,
      "ලෝ": 8784,
      "හේතුවක්": 8785,
      "සාහිත්ය": 8786,
      "උදෑ": 8787,
      "##බුක්": 8788,
      "අවස්ථාවක්": 8789,
      "##මිනි": 8790,
      "නගරයේ": 8791,
      "චිත්රපටය": 8792,
      "##ස්ටර්": 8793,
      "දූෂණ": 8794,
      "ටෙලි": 8795,
      "සංවර්ධනය": 8796,
      "තුරු": 8797,
      "දවසක": 8798,
      "දවස්වල": 8799,
      "අමාත්යාංශය": 8800,
      "පිළිබද": 8801,
      "අමර": 8802,
      "අභ්ය": 8803,
      "පදිංචි": 8804,
      "නිෂ්පාදනය": 8805,
      "පොරො": 8806,
      "##රයා": 8807,
      "කාර්යාලය": 8808,
      "පන්දු": 8809,
      "##පත්ති": 8810,
      "අයුර": 8811,
      "ලැබුණු": 8812,
      "##බාධ": 8813,
      "##ීමේදී": 8814,
      "වේවි": 8815,
      "##ිණ": 8816,
      "විස්ස": 8817,
      "ප්රයෝජ": 8818,
      "සදා": 8819,
      "ලිව්": 8820,
      "එකා": 8821,
      "චෝ": 8822,
      "දෙයි": 8823,
      "##හඬ": 8824,
      "ප්රනාන්දු": 8825,
      "කරමු": 8826,
      "ඉතාමත්": 8827,
      "සාම": 8828,
      "##ක්ම": 8829,
      "සිටිනවා": 8830,
      "දකින්න": 8831,
      "පිස්සු": 8832,
      "රසා": 8833,
      "ඇන": 8834,
      "අපූරු": 8835,
      "ගනී": 8836,
      "ඇසු": 8837,
      "ගිණුම": 8838,
      "##ැත": 8839,
      "සිසුව": 8840,
      "දීර්ඝ": 8841,
      "හරියටම": 8842,
      "##ස්තා": 8843,
      "ඉඳලා": 8844,
      "නොහැක": 8845,
      "03": 8846,
      "හාමුදුරුව": 8847,
      "මුදල": 8848,
      "පෘ": 8849,
      "##ූන්": 8850,
      "වැසි": 8851,
      "වසා": 8852,
      "පුද්ගලික": 8853,
      "06": 8854,
      "අනුරාධ": 8855,
      "කිසියම්": 8856,
      "##ටී": 8857,
      "##ුන්": 8858,
      "##යම": 8859,
      "ඉදිකිර": 8860,
      "බඩු": 8861,
      "08": 8862,
      "සැපය": 8863,
      "පදන": 8864,
      "සුවිශ": 8865,
      "මැදිහ": 8866,
      "##ඹුරු": 8867,
      "ජීවත්ව": 8868,
      "පිලි": 8869,
      "එකක": 8870,
      "40": 8871,
      "යුද්ධය": 8872,
      "##සං": 8873,
      "කූ": 8874,
      "කීපයක්": 8875,
      "නෙමේ": 8876,
      "උදෑසන": 8877,
      "ඕනි": 8878,
      "ඥා": 8879,
      "##ියේදී": 8880,
      "ශක්තිමත්": 8881,
      "සමි": 8882,
      "කිරිම": 8883,
      "##ාවලිය": 8884,
      "පොලිස්පති": 8885,
      "තරගය": 8886,
      "ලබාදෙන": 8887,
      "සිතා": 8888,
      "##ීවර": 8889,
      "වැය": 8890,
      "දෙවියන්": 8891,
      "##හිත": 8892,
      "##පිළ": 8893,
      "තෙක්": 8894,
      "##ගයක්": 8895,
      "සාමාන්යයෙන්": 8896,
      "සංවාද": 8897,
      "හැඩ": 8898,
      "ලිව": 8899,
      "##ිපුර": 8900,
      "නොලැබ": 8901,
      "කාන්තාවන්": 8902,
      "දඩ": 8903,
      "අඟ": 8904,
      "නැතිනම්": 8905,
      "##ත්ස": 8906,
      "එකින": 8907,
      "##රාව": 8908,
      "දවසේ": 8909,
      "සමයේ": 8910,
      "දක්වන්නේ": 8911,
      "##වතු": 8912,
      "##ියෙ": 8913,
      "ශාල": 8914,
      "ගෝඨා": 8915,
      "ඊළඟ": 8916,
      "##ද්දක්": 8917,
      "කුල": 8918,
      "##කයක්": 8919,
      "මතය": 8920,
      "##කල්": 8921,
      "විශ්වවිද්යාල": 8922,
      "අතරේ": 8923,
      "##තීන්": 8924,
      "ජො": 8925,
      "ජනය": 8926,
      "##රළ": 8927,
      "නාල": 8928,
      "ප්රව": 8929,
      "පිවිස": 8930,
      "තමු": 8931,
      "මචං": 8932,
      "දුටු": 8933,
      "මහත්තයා": 8934,
      "රහස්": 8935,
      "හඳුන්වා": 8936,
      "##කෙ": 8937,
      "##තෝ": 8938,
      "##වෙන්න": 8939,
      "පවසන්නේ": 8940,
      "විරෝධය": 8941,
      "දක්වන": 8942,
      "විද්යාලයේ": 8943,
      "අත්සන්": 8944,
      "පට්ට": 8945,
      "වගකීම": 8946,
      "බිලියන": 8947,
      "ඇමරිකානු": 8948,
      "නූ": 8949,
      "ද්": 8950,
      "යෝජනාව": 8951,
      "යාළුව": 8952,
      "##පෑ": 8953,
      "##හය": 8954,
      "එයාට": 8955,
      "එදින": 8956,
      "තනි": 8957,
      "අදහසක්": 8958,
      "සම්ප්ර": 8959,
      "යූ": 8960,
      "පුළු": 8961,
      "ඇරඹ": 8962,
      "04": 8963,
      "උග": 8964,
      "##ධිකරණ": 8965,
      "අත්ය": 8966,
      "සාක්ෂි": 8967,
      "බැලුව": 8968,
      "හිනා": 8969,
      "අයගේ": 8970,
      "##නීය": 8971,
      "ෆේස්බුක්": 8972,
      "දිසානායක": 8973,
      "නිර්දේශ": 8974,
      "හිතෙනවා": 8975,
      "ක්රමයක්": 8976,
      "රජයට": 8977,
      "ෆිල්": 8978,
      "##ත්වයට": 8979,
      "##ඳවා": 8980,
      "නීතිඥ": 8981,
      "අතේ": 8982,
      "ජාතී": 8983,
      "ධීවර": 8984,
      "නිරී": 8985,
      "සම්බන්ධව": 8986,
      "ලෙසින්": 8987,
      "##කන්": 8988,
      "ළම": 8989,
      "ගෙවල්": 8990,
      "ලබාදීමට": 8991,
      "ලෙඩ": 8992,
      "තත්ත්වයක්": 8993,
      "සංකල්ප": 8994,
      "##කිරීමට": 8995,
      "මතුව": 8996,
      "රැඳ": 8997,
      "පැවසුවේ": 8998,
      "මාතර": 8999,
      "ගීතය": 9000,
      "02": 9001,
      "##වාහන": 9002,
      "අපිත්": 9003,
      "ඇතුලත්": 9004,
      "##ෝල්": 9005,
      "##දනාව": 9006,
      "##ස්ති": 9007,
      "ඇයගේ": 9008,
      "තර්": 9009,
      "සමාගම්": 9010,
      "පළමුව": 9011,
      "විමස": 9012,
      "##හත්": 9013,
      "යන්ත්ර": 9014,
      "ගාල්ල": 9015,
      "බංග": 9016,
      "##නාවක්": 9017,
      "##මිණ": 9018,
      "ජාතිය": 9019,
      "පිළිතුර": 9020,
      "වෙනස": 9021,
      "සතියේ": 9022,
      "ෆොන්": 9023,
      "කන්ද": 9024,
      "ටයි": 9025,
      "හිතෙන": 9026,
      "මූල": 9027,
      "පිරිස්": 9028,
      "09": 9029,
      "ලෙසට": 9030,
      "මාර්ගයේ": 9031,
      "මෙහෙයුම්": 9032,
      "##හිංස": 9033,
      "##ේල්": 9034,
      "##ගමුව": 9035,
      "ගොඩා": 9036,
      "ඔයාගේ": 9037,
      "බිහි": 9038,
      "මල්ල": 9039,
      "පෙරම": 9040,
      "පනත": 9041,
      "ඉරි": 9042,
      "29": 9043,
      "නිවේද": 9044,
      "වෛර": 9045,
      "හදු": 9046,
      "බරපතල": 9047,
      "විමුක්ති": 9048,
      "කින්": 9049,
      "රාත්රී": 9050,
      "ගොඩනැගි": 9051,
      "ආදිය": 9052,
      "මාර්තු": 9053,
      "රාව": 9054,
      "හදිසි": 9055,
      "මෘදු": 9056,
      "කරගත්": 9057,
      "නිසයි": 9058,
      "සංචාරක": 9059,
      "කෙනෙකුට": 9060,
      "එතැන": 9061,
      "ස්වාධ": 9062,
      "කොහෙද": 9063,
      "කොරෝ": 9064,
      "කැල": 9065,
      "එළියට": 9066,
      "##න්සි": 9067,
      "ජ්යෙ": 9068,
      "##ඥා": 9069,
      "සිරි": 9070,
      "පැත්තේ": 9071,
      "කියෙ": 9072,
      "කැර": 9073,
      "නිවේදනය": 9074,
      "සහාය": 9075,
      "අනතුරු": 9076,
      "ප්රතිපත්ති": 9077,
      "දිගු": 9078,
      "පාද": 9079,
      "##වාසික": 9080,
      "පැත්තට": 9081,
      "සරල": 9082,
      "හානි": 9083,
      "ආත්ම": 9084,
      "පෑ": 9085,
      "##ගොස්": 9086,
      "ජිවිත": 9087,
      "ගැහැ": 9088,
      "කුමක්ද": 9089,
      "අනිවාර්ය": 9090,
      "##්රාම": 9091,
      "##ගත්තේ": 9092,
      "සුවිශේෂ": 9093,
      "පිටුව": 9094,
      "බලපා": 9095,
      "නොකරන": 9096,
      "එයාල": 9097,
      "බැංකුව": 9098,
      "උව": 9099,
      "හදන": 9100,
      "කොරෝනා": 9101,
      "##ැල්": 9102,
      "උඹට": 9103,
      "මාගේ": 9104,
      "ආයතනයේ": 9105,
      "පාර්ශ": 9106,
      "කාලගුණ": 9107,
      "ආරංචි": 9108,
      "##ොත්ත": 9109,
      "නොවූ": 9110,
      "මහත්මිය": 9111,
      "උපසිර": 9112,
      "වැල": 9113,
      "##ස්ට්රේලිය": 9114,
      "සිසු": 9115,
      "ප්රකාශයට": 9116,
      "ගණනාවක්": 9117,
      "අසල": 9118,
      "##මාව": 9119,
      "##මන්ත්රණ": 9120,
      "විශි": 9121,
      "කියවන": 9122,
      "බැඳුම්": 9123,
      "ලබාදීම": 9124,
      "ගැනත්": 9125,
      "ප්රකාශයක්": 9126,
      "අඩවි": 9127,
      "##මාධ්ය": 9128,
      "ගාය": 9129,
      "පින්තූ": 9130,
      "තානා": 9131,
      "සිදුවීම": 9132,
      "අධිකරණයට": 9133,
      "##න්තොට": 9134,
      "අංග": 9135,
      "##රත්": 9136,
      "සංස්කෘතික": 9137,
      "මහේස්ත්රා": 9138,
      "සතිය": 9139,
      "උන්ට": 9140,
      "කොමි": 9141,
      "මොනවද": 9142,
      "නොමැත": 9143,
      "බැඳුම්කර": 9144,
      "##හී": 9145,
      "##ගන": 9146,
      "ජනාධිපතිතුමා": 9147,
      "වැඩිපුර": 9148,
      "මණ්ඩලයේ": 9149,
      "සංකී": 9150,
      "##ර්මය": 9151,
      "##නාත්මක": 9152,
      "විමල්": 9153,
      "වීමේ": 9154,
      "වෙනව": 9155,
      "ආයෙත්": 9156,
      "##තාල": 9157,
      "එකකට": 9158,
      "පෙම්ව": 9159,
      "සපය": 9160,
      "තුලින්": 9161,
      "උදෙ": 9162,
      "මනා": 9163,
      "දාන": 9164,
      "##න්ධන": 9165,
      "##වක": 9166,
      "##යිල්": 9167,
      "##ගර": 9168,
      "දශක": 9169,
      "විශේෂඥ": 9170,
      "බේරා": 9171,
      "##වරයාට": 9172,
      "##පියන්": 9173,
      "##ටෝ": 9174,
      "ශ්රි": 9175,
      "කිරීමක්": 9176,
      "තාර": 9177,
      "අවධාරණය": 9178,
      "ආයෙ": 9179,
      "##ණන්": 9180,
      "ව්යාපෘතිය": 9181,
      "ශ්රීලනිප": 9182,
      "31": 9183,
      "උන්වහන්සේ": 9184,
      "කෝටි": 9185,
      "ගං": 9186,
      "යුධ": 9187,
      "ශී": 9188,
      "සංශෝධනය": 9189,
      "##පිළිවෙ": 9190,
      "##කට්": 9191,
      "ගොඩාක්": 9192,
      "පැමිණෙන": 9193,
      "කිසිවක්": 9194,
      "##ගන්නේ": 9195,
      "ජීවිතයේ": 9196,
      "අන්තර්ගත": 9197,
      "පෙරමුණේ": 9198,
      "නොති": 9199,
      "දැවැ": 9200,
      "##යෙ": 9201,
      "##ට්ටුව": 9202,
      "ස්ථාප": 9203,
      "ෆිල්ම්": 9204,
      "මේකට": 9205,
      "උදෙසා": 9206,
      "ශු": 9207,
      "බලාපොරොත්ත": 9208,
      "අවට": 9209,
      "##පල": 9210,
      "සලකා": 9211,
      "මියගිය": 9212,
      "සියයට": 9213,
      "##පී": 9214,
      "බලපෑම්": 9215,
      "##ුණි": 9216,
      "ගනුදෙන": 9217,
      "අවකාශ": 9218,
      "ජනමාධ්ය": 9219,
      "##ාරත්න": 9220,
      "##වෙමින්": 9221,
      "##හිම": 9222,
      "දැවැන්ත": 9223,
      "##සියේ": 9224,
      "නොමි": 9225,
      "නායකයා": 9226,
      "##සර්": 9227,
      "හිමියන්": 9228,
      "ජවිපෙ": 9229,
      "මිත්ර": 9230,
      "බලධාර": 9231,
      "උපකරණ": 9232,
      "ගහන්න": 9233,
      "##සියන්": 9234,
      "විප්": 9235,
      "ජර්": 9236,
      "##තරා": 9237,
      "##දවා": 9238,
      "##ජ්ජ": 9239,
      "රාජකාර": 9240,
      "##යින්ගේ": 9241,
      "##වංශ": 9242,
      "යන්නට": 9243,
      "##ිභ": 9244,
      "එලෙස": 9245,
      "ඉරා": 9246,
      "මරු": 9247,
      "වරාය": 9248,
      "ජාතීන්ගේ": 9249,
      "කොන්දේ": 9250,
      "සඟ": 9251,
      "ඉන්ධන": 9252,
      "ජ්යෙෂ්ඨ": 9253,
      "ගෙව": 9254,
      "බෝම්බ": 9255,
      "##ියි": 9256,
      "##ුනා": 9257,
      "##ැසි": 9258,
      "හම්බන්තොට": 9259,
      "මුද්ර": 9260,
      "තාක්ෂණය": 9261,
      "##ගාම": 9262,
      "අපේක්ෂා": 9263,
      "##කාංග": 9264,
      "මව්": 9265,
      "එත්": 9266,
      "ආපසු": 9267,
      "සිදුවීම්": 9268,
      "සැලකි": 9269,
      "උනාට": 9270,
      "##ගැන්": 9271,
      "විද්යාඥ": 9272,
      "##ත්රි": 9273,
      "නින්ද": 9274,
      "ප්රදේශවල": 9275,
      "##රෙන්න": 9276,
      "##හක්": 9277,
      "සිදුකරන": 9278,
      "වලදී": 9279,
      "ජාල": 9280,
      "දිවි": 9281,
      "##ාරි": 9282,
      "##සේකා": 9283,
      "කොමිසම": 9284,
      "හැමෝටම": 9285,
      "කවර": 9286,
      "දළ": 9287,
      "තියනව": 9288,
      "##සාරිස්": 9289,
      "##න්දි": 9290,
      "නායකත්වය": 9291,
      "පං": 9292,
      "##රුම්": 9293,
      "පද්ධතිය": 9294,
      "දැරිය": 9295,
      "##ගැනීමේ": 9296,
      "වැඩිව": 9297,
      "තවම": 9298,
      "වැරැ": 9299,
      "##වලු": 9300,
      "ආසාද": 9301,
      "මනෝ": 9302,
      "තැනක": 9303,
      "පුද්ගලයෙකු": 9304,
      "දරුවන්ට": 9305,
      "තානාපති": 9306,
      "වැඩසටහන්": 9307,
      "අහිංස": 9308,
      "##ෝගී": 9309,
      "##ලික්": 9310,
      "තිබීම": 9311,
      "එරට": 9312,
      "##ිවල": 9313,
      "රවී": 9314,
      "ඉදිරියේදී": 9315,
      "කඩේ": 9316,
      "ඉතිහාසයේ": 9317,
      "පුළුව": 9318,
      "මන්ත්රීවරුන්": 9319,
      "දැර": 9320,
      "හැකියාවක්": 9321,
      "මොහොතේ": 9322,
      "සැලක": 9323,
      "අන්තර්ජාල": 9324,
      "අහෝ": 9325,
      "වරදක්": 9326,
      "දිස්ත්රික්": 9327,
      "පස්ස": 9328,
      "බලපත්ර": 9329,
      "පොළො": 9330,
      "අංශයේ": 9331,
      "සිත්": 9332,
      "හින": 9333,
      "හීන": 9334,
      "වැඩිහ": 9335,
      "විනාඩි": 9336,
      "එච්චර": 9337,
      "##න්දුවක්": 9338,
      "##ාරා": 9339,
      "මාධ්යවේදී": 9340,
      "මෝඩ": 9341,
      "සමාගමේ": 9342,
      "මෛත්ර": 9343,
      "විසඳ": 9344,
      "මිනිහ": 9345,
      "##ඳුරු": 9346,
      "ප්රච": 9347,
      "දෙසැම්බර්": 9348,
      "ජයවර්ධන": 9349,
      "බලවේ": 9350,
      "##දුවේ": 9351,
      "භාග": 9352,
      "කිව්වෙ": 9353,
      "දස": 9354,
      "අතරතුර": 9355,
      "දරු": 9356,
      "අන්තිම": 9357,
      "පුහුණ": 9358,
      "##වීමෙන්": 9359,
      "මෙයට": 9360,
      "##ිල": 9361,
      "ලබාදී": 9362,
      "අංශය": 9363,
      "##ෝප": 9364,
      "ග්රහ": 9365,
      "අරා": 9366,
      "දෙකම": 9367,
      "##ජන්": 9368,
      "වේල": 9369,
      "ඇඳුම්": 9370,
      "ඉවරයි": 9371,
      "##ොයි": 9372,
      "##භාවය": 9373,
      "පිළිබදව": 9374,
      "ආණ්ඩුවක්": 9375,
      "නගරය": 9376,
      "තරම": 9377,
      "මොහොත": 9378,
      "වැඩපිළිවෙ": 9379,
      "##ස්ථානය": 9380,
      "සහිතව": 9381,
      "##ලෝක": 9382,
      "##ක්කා": 9383,
      "##ෝල": 9384,
      "විකල්ප": 9385,
      "ලින්": 9386,
      "සංගමයේ": 9387,
      "##ඩර්": 9388,
      "හිස්": 9389,
      "##මානයේ": 9390,
      "සිටීම": 9391,
      "සමන්විත": 9392,
      "වීමෙන්": 9393,
      "ෆොන්සේකා": 9394,
      "නමැති": 9395,
      "ලු": 9396,
      "පාරිභ": 9397,
      "මෙච්චර": 9398,
      "නිෂ්පාද": 9399,
      "සිටියදී": 9400,
      "ඉස්ලා": 9401,
      "##ගල්": 9402,
      "##ට්ටි": 9403,
      "ඉන්ප": 9404,
      "##රන්": 9405,
      "##ෙමින්": 9406,
      "පල්ල": 9407,
      "පැහැර": 9408,
      "පරිපාල": 9409,
      "ක්රියාමාර්ග": 9410,
      "##ළිය": 9411,
      "2012": 9412,
      "##20": 9413,
      "විරුද්ධව": 9414,
      "මුදා": 9415,
      "විශේෂයෙන්ම": 9416,
      "කොන්": 9417,
      "පස": 9418,
      "පහස": 9419,
      "අගෝ": 9420,
      "බලපෑ": 9421,
      "වතාව": 9422,
      "ප්රකාශක": 9423,
      "පුළුල්": 9424,
      "පාරේ": 9425,
      "හින්ද": 9426,
      "නිරූප": 9427,
      "නිදා": 9428,
      "දෙකකට": 9429,
      "ජපා": 9430,
      "අවශ්යතාව": 9431,
      "ඔප්පු": 9432,
      "රසායන": 9433,
      "සමාව": 9434,
      "විපක්ෂයේ": 9435,
      "ආශ": 9436,
      "තුමා": 9437,
      "##රිස්": 9438,
      "පත්කර": 9439,
      "කකු": 9440,
      "##දුන": 9441,
      "2014": 9442,
      "ජෙ": 9443,
      "ඇන්": 9444,
      "##ුල්": 9445,
      "කණ්ඩායමක්": 9446,
      "##පර": 9447,
      "තිදෙන": 9448,
      "##පුව": 9449,
      "එබැ": 9450,
      "අඩි": 9451,
      "##්ත": 9452,
      "යාපනය": 9453,
      "දුර්වල": 9454,
      "විජය": 9455,
      "යථ": 9456,
      "ඒකත්": 9457,
      "ඩෙ": 9458,
      "##කාව": 9459,
      "කන්": 9460,
      "##කයන්ට": 9461,
      "අළුත්": 9462,
      "ටැ": 9463,
      "ගැටලු": 9464,
      "ගෝඨාභය": 9465,
      "##ශ්ව": 9466,
      "ලියලා": 9467,
      "ජනරාල්": 9468,
      "##වරයෙකු": 9469,
      "සමිති": 9470,
      "ස්ථාව": 9471,
      "එකිනෙ": 9472,
      "##න්නම්": 9473,
      "මෘදුකාංග": 9474,
      "ප්රතිසං": 9475,
      "මාසයේ": 9476,
      "ආසාදිත": 9477,
      "කිරීමේදී": 9478,
      "##කයෙක්": 9479,
      "කොල": 9480,
      "##හෙස": 9481,
      "බලන්": 9482,
      "අනුගමනය": 9483,
      "##කැ": 9484,
      "##සූරිය": 9485,
      "ප්රභ": 9486,
      "##නයන්": 9487,
      "එලියට": 9488,
      "ලදි": 9489,
      "ආනය": 9490,
      "##ල්ලු": 9491,
      "##වරයාගේ": 9492,
      "පිහිටා": 9493,
      "##පදි": 9494,
      "දුරටත්": 9495,
      "හුඟ": 9496,
      "පිප": 9497,
      "උරුම": 9498,
      "ආණ්ඩුක්රම": 9499,
      "අත්ව": 9500,
      "දරා": 9501,
      "මැතිවරණය": 9502,
      "##යො": 9503,
      "පදිංච": 9504,
      "පූර්ණ": 9505,
      "ශරීර": 9506,
      "ළමය": 9507,
      "අකම": 9508,
      "##නල්": 9509,
      "පිහිටුව": 9510,
      "යතුරු": 9511,
      "##සියාවේ": 9512,
      "කිව්වොත්": 9513,
      "##වාරි": 9514,
      "නුඹ": 9515,
      "##ලාට": 9516,
      "දැම්ම": 9517,
      "##හෙන්": 9518,
      "සබඳ": 9519,
      "පූජ": 9520,
      "දැමීමට": 9521,
      "දක්වමින්": 9522,
      "##රාදා": 9523,
      "වූහ": 9524,
      "වුණු": 9525,
      "නොවී": 9526,
      "අර්ජ": 9527,
      "අහල": 9528,
      "හිටියෙ": 9529,
      "##නො": 9530,
      "අවස්ථාවේදී": 9531,
      "දෙන්නා": 9532,
      "අයින්": 9533,
      "##නං": 9534,
      "අයිතිවාසික": 9535,
      "##ඳින්න": 9536,
      "බාධ": 9537,
      "අර්බුද": 9538,
      "බිහිව": 9539,
      "ඉන්දියානු": 9540,
      "කතන්දර": 9541,
      "භාෂාව": 9542,
      "විකාශ": 9543,
      "තිබ්බා": 9544,
      "පවත්වන": 9545,
      "ඉනිම": 9546,
      "මරණය": 9547,
      "හුව": 9548,
      "කපා": 9549,
      "##ගන්නවා": 9550,
      "සහගත": 9551,
      "බස්නා": 9552,
      "කටයුතුව": 9553,
      "##ිනම්": 9554,
      "කැමතියි": 9555,
      "##කූල": 9556,
      "##රුණා": 9557,
      "රසික": 9558,
      "විකුණ": 9559,
      "##නුත්": 9560,
      "කෘෂික": 9561,
      "හිතන": 9562,
      "##කයේ": 9563,
      "පිළිවෙ": 9564,
      "වසරේදී": 9565,
      "ඉතුරු": 9566,
      "පෙත්ස": 9567,
      "ලාභ": 9568,
      "සිදුවිය": 9569,
      "##වාදීන්": 9570,
      "වනා": 9571,
      "නොදැන": 9572,
      "සිංග": 9573,
      "අඩංගු": 9574,
      "##ම්ප්": 9575,
      "ඔයාලට": 9576,
      "ගම්ප": 9577,
      "මැන": 9578,
      "අනුර": 9579,
      "##විනි": 9580,
      "දිස්ත්රික්කයේ": 9581,
      "සතුව": 9582,
      "ඉක්ම": 9583,
      "රාත්රියේ": 9584,
      "පෙබර": 9585,
      "එක්තරා": 9586,
      "වැටුප්": 9587,
      "බස්නාහිර": 9588,
      "අක්ක": 9589,
      "පාරක්": 9590,
      "##පළ": 9591,
      "විදිය": 9592,
      "නිවාඩු": 9593,
      "හෙහ්": 9594,
      "ශබ්": 9595,
      "පාරිභෝගික": 9596,
      "එක්කම": 9597,
      "රක්ෂිත": 9598,
      "##වැන්න": 9599,
      "තරමට": 9600,
      "ආතල්": 9601,
      "අනුරාධපුර": 9602,
      "##ෙමු": 9603,
      "තරමක්": 9604,
      "අප්රේල්": 9605,
      "ජීවන": 9606,
      "##ෙදි": 9607,
      "දැයි": 9608,
      "ඇමෙරික": 9609,
      "ලැයි": 9610,
      "35": 9611,
      "ජනාධිපතිවරණ": 9612,
      "ඔක්තෝ": 9613,
      "ත්": 9614,
      "60": 9615,
      "අයුරින්": 9616,
      "ජාව": 9617,
      "ප්රධානත්වයෙන්": 9618,
      "ඉක්මනින්": 9619,
      "දියණිය": 9620,
      "ලබයි": 9621,
      "##රුවේ": 9622,
      "මාලි": 9623,
      "විභා": 9624,
      "විදුහල්": 9625,
      "##විලි": 9626,
      "කතාබ": 9627,
      "ගියාම": 9628,
      "ආයේ": 9629,
      "පරීක්ෂා": 9630,
      "කුසලාන": 9631,
      "ක්රිය": 9632,
      "කුමන": 9633,
      "##ළුවක්": 9634,
      "උද්ඝ": 9635,
      "සිරුර": 9636,
      "විශ්රාම": 9637,
      "ව්යාපාරය": 9638,
      "අවුලක්": 9639,
      "විශ්වාසය": 9640,
      "##දෙන්න": 9641,
      "අනුමත": 9642,
      "කාමර": 9643,
      "එතරම්": 9644,
      "සංවිධානයේ": 9645,
      "රාශ": 9646,
      "දාගෙන": 9647,
      "මන්දා": 9648,
      "බලලා": 9649,
      "##ාත්": 9650,
      "ඉර": 9651,
      "ආකාරයේ": 9652,
      "කුම": 9653,
      "##යකදී": 9654,
      "ප්රකාශය": 9655,
      "අමාරුයි": 9656,
      "උපකාර": 9657,
      "ලැබෙන්නේ": 9658,
      "කොමසාරිස්": 9659,
      "දහස්": 9660,
      "හුවමාර": 9661,
      "සැප්ත": 9662,
      "අමුතු": 9663,
      "ස්වාධීන": 9664,
      "දැම්මා": 9665,
      "අසරණ": 9666,
      "තාමත්": 9667,
      "පහුගිය": 9668,
      "නොදන්නා": 9669,
      "මැර": 9670,
      "##ිසුරු": 9671,
      "නොහැකිය": 9672,
      "බලයට": 9673,
      "##ස්ත්ර": 9674,
      "අනික්": 9675,
      "ලග": 9676,
      "පූර්": 9677,
      "අජිත්": 9678,
      "පුරුෂ": 9679,
      "##ලාභ": 9680,
      "පිරිසි": 9681,
      "සප": 9682,
      "##වලදී": 9683,
      "##්ම්": 9684,
      "කෙර": 9685,
      "වගකීමක්": 9686,
      "##තිහාස": 9687,
      "##ධිර": 9688,
      "##දියි": 9689,
      "සැකකරු": 9690,
      "සියලූ": 9691,
      "අධ්යය": 9692,
      "කළහ": 9693,
      "##ත්තක්": 9694,
      "අනුමැ": 9695,
      "පැතුම්": 9696,
      "වටහා": 9697,
      "##කයෝ": 9698,
      "කාරණා": 9699,
      "පුලුව": 9700,
      "අගෝස්තු": 9701,
      "##දිම": 9702,
      "##පේක්ෂ": 9703,
      "ඉංජ": 9704,
      "අරමුද": 9705,
      "නිකන්": 9706,
      "ග්රාම": 9707,
      "දරන": 9708,
      "විද්යාත්මක": 9709,
      "##පාර": 9710,
      "අතු": 9711,
      "දරුණු": 9712,
      "ඇහැ": 9713,
      "රත්න": 9714,
      "දිවයින": 9715,
      "වටා": 9716,
      "ආද": 9717,
      "දෙමින්": 9718,
      "ලෙසයි": 9719,
      "ලැබෙනවා": 9720,
      "පොලිසියට": 9721,
      "ඇල්": 9722,
      "##ිතය": 9723,
      "තමන්ගෙ": 9724,
      "ජාවාර": 9725,
      "බුද්ධි": 9726,
      "මත්ද්රව්ය": 9727,
      "වංචා": 9728,
      "ගෘ": 9729,
      "##දිග": 9730,
      "බොරුව": 9731,
      "##ලාගේ": 9732,
      "##නුව": 9733,
      "2013": 9734,
      "ගොනු": 9735,
      "උත්සහ": 9736,
      "බත්": 9737,
      "ඉල්ලීම": 9738,
      "හාන": 9739,
      "පරම්ප": 9740,
      "විපක්ෂය": 9741,
      "##දින්න": 9742,
      "##කගේ": 9743,
      "රථය": 9744,
      "යුව": 9745,
      "න්ය": 9746,
      "පොතේ": 9747,
      "වගා": 9748,
      "කෙට": 9749,
      "##සෙන": 9750,
      "සැකකරුවන්": 9751,
      "දයා": 9752,
      "මද": 9753,
      "පාර්ශව": 9754,
      "සිටිති": 9755,
      "##හෙන්න": 9756,
      "##ශීලී": 9757,
      "අදත්": 9758,
      "##යම්": 9759,
      "පන්ති": 9760,
      "දැක්කා": 9761,
      "දෙදෙනෙකු": 9762,
      "යුත්": 9763,
      "නිවසට": 9764,
      "සැමියා": 9765,
      "සේන": 9766,
      "##වුල්": 9767,
      "අල්": 9768,
      "අපිව": 9769,
      "උපදේශ": 9770,
      "නිපද": 9771,
      "එබැවින්": 9772,
      "නැම": 9773,
      "වො": 9774,
      "ඩය": 9775,
      "රෝගී": 9776,
      "බොහෝම": 9777,
      "##වතුන්": 9778,
      "සෘ": 9779,
      "මතකයි": 9780,
      "එප": 9781,
      "උබ": 9782,
      "ඇට": 9783,
      "ශ්රේෂ්ඨා": 9784,
      "උණ": 9785,
      "රාජිත": 9786,
      "##පාදන": 9787,
      "ලද්දේ": 9788,
      "දිගින්": 9789,
      "රුධිර": 9790,
      "හරිය": 9791,
      "බහ": 9792,
      "හැක්කේ": 9793,
      "පෙබරවාරි": 9794,
      "පැහැදිලිව": 9795,
      "කරමි": 9796,
      "##පැල්": 9797,
      "##තිහාසික": 9798,
      "පහසුවෙන්": 9799,
      "ලබාගත්": 9800,
      "උතුරේ": 9801,
      "වද": 9802,
      "ගෙදරට": 9803,
      "හිතනවා": 9804,
      "##පිටිය": 9805,
      "##වන්නේ": 9806,
      "උණුසුම්": 9807,
      "##ගොල්ල": 9808,
      "පාර්ලිමේන්තුවට": 9809,
      "වෙලාවේ": 9810,
      "සෑහෙන": 9811,
      "##ම්බර": 9812,
      "අකුරු": 9813,
      "ස්ථානයේ": 9814,
      "අයිතිවාසිකම්": 9815,
      "මනුෂ්ය": 9816,
      "වරට": 9817,
      "අයියේ": 9818,
      "ගියේය": 9819,
      "ව්යවස්ථාව": 9820,
      "දොස්තර": 9821,
      "වර්තමාන": 9822,
      "මෛත්රිපාල": 9823,
      "සමීප": 9824,
      "අහිංසක": 9825,
      "නොමිලේ": 9826,
      "##පුරා": 9827,
      "##මිත": 9828,
      "වෙලාවක්": 9829,
      "කෙලින්": 9830,
      "කඩුලු": 9831,
      "නොවැම්බර්": 9832,
      "අලෙවි": 9833,
      "කොහොමත්": 9834,
      "හත": 9835,
      "මගෙන්": 9836,
      "රෝහලට": 9837,
      "ආකාරයෙන්": 9838,
      "හිතන්නෙ": 9839,
      "ඉංජිනේ": 9840,
      "මීටර්": 9841,
      "නීතිපති": 9842,
      "දඬුවම්": 9843,
      "##න්ට්": 9844,
      "##ලයි": 9845,
      "නාග": 9846,
      "මෙයා": 9847,
      "යමින්": 9848,
      "අක්කා": 9849,
      "##ර්ති": 9850,
      "අයවැ": 9851,
      "අයුරු": 9852,
      "ප්රවී": 9853,
      "##වලා": 9854,
      "##ස්ථාන": 9855,
      "වැටී": 9856,
      "ගැටළු": 9857,
      "##තුරට": 9858,
      "ආදායම්": 9859,
      "නැර": 9860,
      "##ොස්": 9861,
      "තාක්ෂණික": 9862,
      "ෆෝන්": 9863,
      "තනතුර": 9864,
      "නවී": 9865,
      "ඇතිවන": 9866,
      "කලාව": 9867,
      "ගිවිසුම": 9868,
      "එළඹ": 9869,
      "##ර්ෂ": 9870,
      "පෙනෙන": 9871,
      "රංගන": 9872,
      "දෙමා": 9873,
      "කම්ප": 9874,
      "දුෂ්": 9875,
      "ගසා": 9876,
      "යනකොට": 9877,
      "ලෑ": 9878,
      "##ඤ්": 9879,
      "ගම්මා": 9880,
      "##ණික": 9881,
      "අනන්ය": 9882,
      "අහෝසි": 9883,
      "ගලා": 9884,
      "යහපාලන": 9885,
      "සිංහ": 9886,
      "සිද්ද": 9887,
      "සැප්තැම්බර්": 9888,
      "කුඩු": 9889,
      "තියෙන්න": 9890,
      "බැන": 9891,
      "##මාල්": 9892,
      "සුද්ද": 9893,
      "තවද": 9894,
      "පුවත්පත": 9895,
      "සංස්කෘතිය": 9896,
      "ප්රවේශ": 9897,
      "ධාවනය": 9898,
      "##මුන්": 9899,
      "දැමීම": 9900,
      "ප්රතිපත්තිය": 9901,
      "##වම": 9902,
      "අතුරුද": 9903,
      "නිල්": 9904,
      "කණ්ඩායමට": 9905,
      "අවදාන": 9906,
      "විද්යාලය": 9907,
      "##ිමු": 9908,
      "පරිවර්තනය": 9909,
      "45": 9910,
      "සංස්ථ": 9911,
      "දැනටම": 9912,
      "අවාස": 9913,
      "පත්වූ": 9914,
      "උපුටා": 9915,
      "අබේ": 9916,
      "ප්රදර්ශනය": 9917,
      "සංකීර්ණ": 9918,
      "##කීය": 9919,
      "ඒකෙ": 9920,
      "නිතරම": 9921,
      "##රිලා": 9922,
      "##ව්ස්": 9923,
      "වර්තමානයේ": 9924,
      "##ස්තියා": 9925,
      "තැපැල්": 9926,
      "නට": 9927,
      "ආලෝක": 9928,
      "ප්රමාණවත්": 9929,
      "නමක්": 9930,
      "සවස": 9931,
      "ඉස්කෝලෙ": 9932,
      "කොන්දේසි": 9933,
      "මහේස්ත්රාත්": 9934,
      "නඩුව": 9935,
      "##ංශයේ": 9936,
      "ප්රවාහන": 9937,
      "කාටවත්": 9938,
      "අභ්යන්තර": 9939,
      "පොතක්": 9940,
      "ලක්ව": 9941,
      "##චි": 9942,
      "තල": 9943,
      "තාවක": 9944,
      "පැර": 9945,
      "කෙනෙකු": 9946,
      "හයි": 9947,
      "දැකලා": 9948,
      "අතරම": 9949,
      "උපාධි": 9950,
      "රස්ස": 9951,
      "හිතාගෙන": 9952,
      "##ිකයන්": 9953,
      "තාවකාල": 9954,
      "##නියා": 9955,
      "කාලයේදී": 9956,
      "##වාගෙන": 9957,
      "##ගන්නට": 9958,
      "ආවෙ": 9959,
      "අනුමැතිය": 9960,
      "සාධක": 9961,
      "සේවයේ": 9962,
      "එයාගේ": 9963,
      "තරගාවලිය": 9964,
      "ඔවුහු": 9965,
      "ඉන්නව": 9966,
      "##ස්සා": 9967,
      "සාපේක්ෂ": 9968,
      "ගෝල": 9969,
      "අධි": 9970,
      "කෙල": 9971,
      "ඉරිදා": 9972,
      "##රම": 9973,
      "අදටත්": 9974,
      "අඩුව": 9975,
      "අමත": 9976,
      "ලියාපදි": 9977,
      "නොක": 9978,
      "එයි": 9979,
      "කිහිපයකට": 9980,
      "මට්ටමේ": 9981,
      "සැලකිය": 9982,
      "##ියෙකු": 9983,
      "වන්ද": 9984,
      "විකි": 9985,
      "යටත්": 9986,
      "කොමිෂන්": 9987,
      "රෝගය": 9988,
      "යකෝ": 9989,
      "අරු": 9990,
      "තීරණයක්": 9991,
      "එහෙමත්": 9992,
      "කිරීමයි": 9993,
      "සංඝ": 9994,
      "ඒකයි": 9995,
      "දෙන්නට": 9996,
      "##ප්පා": 9997,
      "ගහන": 9998,
      "දැනෙන": 9999,
      "196": 10000,
      "##ිවේද": 10001,
      "අහලා": 10002,
      "නවත්ත": 10003,
      "විසඳු": 10004,
      "හිඟ": 10005,
      "කි්ර": 10006,
      "ලයි": 10007,
      "දුරට": 10008,
      "##ිවිඩ": 10009,
      "කේන්ද්ර": 10010,
      "ලැබුවේ": 10011,
      "වෙරළ": 10012,
      "හොදයි": 10013,
      "එවන්": 10014,
      "බල්ල": 10015,
      "කියමින්": 10016,
      "එකී": 10017,
      "ජනපද": 10018,
      "පරිස": 10019,
      "##වුන": 10020,
      "70": 10021,
      "##ාවේදී": 10022,
      "කරගත": 10023,
      "තත්වයක්": 10024,
      "##න්ථ": 10025,
      "මිනිස්සුන්ට": 10026,
      "##ිවු": 10027,
      "නැත්තේ": 10028,
      "වටිනාකම": 10029,
      "ලබන්නේ": 10030,
      "ප්රමා": 10031,
      "වැටි": 10032,
      "ගහලා": 10033,
      "##ල්ස්": 10034,
      "පොරොන්දු": 10035,
      "එවකට": 10036,
      "අධිරා": 10037,
      "සත": 10038,
      "අඩුම": 10039,
      "පාඩම්": 10040,
      "අඩවියේ": 10041,
      "##ඩියා": 10042,
      "##මින්ද": 10043,
      "ඓතිහාසික": 10044,
      "වයි": 10045,
      "වාසනාව": 10046,
      "කරු": 10047,
      "කරති": 10048,
      "සිටියි": 10049,
      "##රල්": 10050,
      "බැහැර": 10051,
      "ඉල්ලීමක්": 10052,
      "වූවා": 10053,
      "නිදහ": 10054,
      "අවධා": 10055,
      "මින්": 10056,
      "##ොප්": 10057,
      "##ිකාවක්": 10058,
      "තරගාවලියේ": 10059,
      "කොරිය": 10060,
      "මොනා": 10061,
      "නොතිබ": 10062,
      "සේවක": 10063,
      "පොස්ට්": 10064,
      "##ේය": 10065,
      "බූ": 10066,
      "ඇඳු": 10067,
      "කාරණ": 10068,
      "පැතිර": 10069,
      "සැළ": 10070,
      "ක්රීඩාංග": 10071,
      "ආර්ථිකය": 10072,
      "2010": 10073,
      "සහයෝගය": 10074,
      "වැඩියි": 10075,
      "ක්රියාවලිය": 10076,
      "නැඟ": 10077,
      "සහන": 10078,
      "ග්රන්ථ": 10079,
      "ගති": 10080,
      "බලවත්": 10081,
      "ලංකාවෙ": 10082,
      "##යන්ගෙන්": 10083,
      "කස": 10084,
      "නෑනේ": 10085,
      "සිටියහ": 10086,
      "පිං": 10087,
      "කවිය": 10088,
      "කම්කරු": 10089,
      "කාරක": 10090,
      "##වරයකු": 10091,
      "උදාහරණයක්": 10092,
      "කඳවු": 10093,
      "##ේදී": 10094,
      "බාධා": 10095,
      "දුෂ්කර": 10096,
      "සෙල්ලම්": 10097,
      "##නයේදී": 10098,
      "ලැබීම": 10099,
      "ස්වය": 10100,
      "සංවිධායක": 10101,
      "සිංහලෙන්": 10102,
      "හැදුව": 10103,
      "ප්රදේශය": 10104,
      "ආරාධනා": 10105,
      "500": 10106,
      "##කුණ": 10107,
      "හිතුනා": 10108,
      "ඉදන්": 10109,
      "තීන්": 10110,
      "මෙවන්": 10111,
      "පළාතේ": 10112,
      "සත්ව": 10113,
      "දෙපාර්තමේන්තුවේ": 10114,
      "කෙනා": 10115,
      "උන්න": 10116,
      "සංවේදී": 10117,
      "##කාලීන": 10118,
      "බෙහෙත්": 10119,
      "බැවිනි": 10120,
      "##ිනු": 10121,
      "සිහින": 10122,
      "සිකු": 10123,
      "දීල": 10124,
      "විදුහල්පති": 10125,
      "තීන්දු": 10126,
      "##ට්ස්": 10127,
      "ලැබුවා": 10128,
      "ගඟ": 10129,
      "තැනට": 10130,
      "ගත්තේය": 10131,
      "##වනු": 10132,
      "##ම්ස්": 10133,
      "සරණ": 10134,
      "හවස": 10135,
      "මොහු": 10136,
      "භාවිතය": 10137,
      "##තැන": 10138,
      "මන්ත්රීවරු": 10139,
      "2011": 10140,
      "ක්ෂේත්රයේ": 10141,
      "##ිවේ": 10142,
      "##සේන": 10143,
      "##ඤ්ඤ": 10144,
      "සොහො": 10145,
      "වෙහෙස": 10146,
      "දෙකට": 10147,
      "ආසියානු": 10148,
      "වෙලාවක": 10149,
      "කමිටුව": 10150,
      "සීන්": 10151,
      "පවසන": 10152,
      "තීන්දුව": 10153,
      "දියුණ": 10154,
      "ඔහුව": 10155,
      "ඇල": 10156,
      "චූ": 10157,
      "##වාදයට": 10158,
      "චින්": 10159,
      "##ාවකට": 10160,
      "සැලැ": 10161,
      "ලියපු": 10162,
      "දාපු": 10163,
      "අවස්ථාවක": 10164,
      "ස්වාම": 10165,
      "කාලා": 10166,
      "චරිතයක්": 10167,
      "නැරඹ": 10168,
      "##ෙන්ට": 10169,
      "රෝගීන්": 10170,
      "##න්නෙත්": 10171,
      "ජෙන": 10172,
      "එවුන්": 10173,
      "රථයක්": 10174,
      "වෙද්දී": 10175,
      "තියාගෙන": 10176,
      "අවස්ථාවල": 10177,
      "මිශ්ර": 10178,
      "##විඩ්": 10179,
      "ව්යාපෘති": 10180,
      "දිනේ": 10181,
      "ඇත්": 10182,
      "නිහඬ": 10183,
      "අගමැතිවරයා": 10184,
      "##තිලක": 10185,
      "##ත්වල": 10186,
      "පැමිණිලි": 10187,
      "##කරන්න": 10188,
      "දියත්": 10189,
      "ස්වයං": 10190,
      "තෑ": 10191,
      "පැළ": 10192,
      "ආගම්": 10193,
      "හදිස": 10194,
      "ගබ": 10195,
      "කහ": 10196,
      "සාමය": 10197,
      "අවංක": 10198,
      "පැවර": 10199,
      "දැනටමත්": 10200,
      "පසුබිම": 10201,
      "ලෙසත්": 10202,
      "අනාගතය": 10203,
      "පව්": 10204,
      "පණිවිඩ": 10205,
      "ලින්ක්": 10206,
      "##විල": 10207,
      "විශිෂ්ට": 10208,
      "ෆොට": 10209,
      "##ක්ටර්": 10210,
      "දෝ": 10211,
      "බණ්ඩාරනායක": 10212,
      "දෙනු": 10213,
      "##ළා": 10214,
      "##පතා": 10215,
      "ප්රභා": 10216,
      "රෙදි": 10217,
      "බස": 10218,
      "ගුණවර්ධන": 10219,
      "පිරින": 10220,
      "ඉවස": 10221,
      "රත්නායක": 10222,
      "ඵල": 10223,
      "##කාමී": 10224,
      "##වරයෙක්": 10225,
      "අලූ": 10226,
      "එළි": 10227,
      "එක්වෙමින්": 10228,
      "එමගින්": 10229,
      "උද්ඝෝ": 10230,
      "පිරිසිදු": 10231,
      "මොළ": 10232,
      "##ෘද": 10233,
      "චා": 10234,
      "දෘ": 10235,
      "පෙනේ": 10236,
      "##ැල": 10237,
      "කරුණක්": 10238,
      "ලැබුණා": 10239,
      "පැවත": 10240,
      "චන්ද්රිකා": 10241,
      "කරනව": 10242,
      "අමෙ": 10243,
      "උඹේ": 10244,
      "##ෑගල": 10245,
      "පුරාම": 10246,
      "නරඹ": 10247,
      "පුන": 10248,
      "ගෞරව": 10249,
      "භාෂා": 10250,
      "යෑම": 10251,
      "ගස": 10252,
      "ජනයා": 10253,
      "තමාගේ": 10254,
      "සිව්": 10255,
      "කියලත්": 10256,
      "නියමිතයි": 10257,
      "##යන්ත": 10258,
      "චීනය": 10259,
      "කියවලා": 10260,
      "කෙසේද": 10261,
      "පදනම": 10262,
      "ගැහ": 10263,
      "##වමින්": 10264,
      "##කටද": 10265,
      "##ීර": 10266,
      "##හාන්": 10267,
      "##පුරුදු": 10268,
      "මෙතැන": 10269,
      "යළිත්": 10270,
      "##තාවයක්": 10271,
      "රජතුමා": 10272,
      "##වරුන්ගේ": 10273,
      "##වන්ත": 10274,
      "විමසා": 10275,
      "සමූහ": 10276,
      "කලබල": 10277,
      "##ද්දා": 10278,
      "තිබී": 10279,
      "##සියාව": 10280,
      "ඒවායේ": 10281,
      "රණවිර": 10282,
      "වචනය": 10283,
      "ක්රමවේද": 10284,
      "වාසි": 10285,
      "විදුලිය": 10286,
      "අපහාස": 10287,
      "##ුරුම්": 10288,
      "සම්බන්ද": 10289,
      "##සියට": 10290,
      "නොදන්න": 10291,
      "නිශ්ච": 10292,
      "නායකයන්": 10293,
      "චරිතය": 10294,
      "##සුම": 10295,
      "තැන්පත්": 10296,
      "විරෝධතා": 10297,
      "##ෙනු": 10298,
      "ආනන්ද": 10299,
      "නොමැතිව": 10300,
      "හදලා": 10301,
      "සටන": 10302,
      "##සියානු": 10303,
      "##ියම": 10304,
      "##චිත": 10305,
      "බරපතළ": 10306,
      "විප්ලව": 10307,
      "##ාරී": 10308,
      "ගානක්": 10309,
      "වටේ": 10310,
      "##ධිකරණය": 10311,
      "කුරුණ": 10312,
      "##ියාගේ": 10313,
      "අණ": 10314,
      "එකල": 10315,
      "තොටු": 10316,
      "අරමුණු": 10317,
      "සමත්ව": 10318,
      "##ලිත්": 10319,
      "##පිල": 10320,
      "සතුටින්": 10321,
      "ප්රතිශ": 10322,
      "ගියොත්": 10323,
      "කැට": 10324,
      "##කලා": 10325,
      "ආබාධ": 10326,
      "ලබාගෙන": 10327,
      "බැරිව": 10328,
      "##වත්ත": 10329,
      "පූජා": 10330,
      "හමුදාවේ": 10331,
      "මුව": 10332,
      "සන්නිවේද": 10333,
      "ජෝන්": 10334,
      "වතු": 10335,
      "දහම": 10336,
      "අතරට": 10337,
      "ස්වර": 10338,
      "##යාම": 10339,
      "##සියෙන්": 10340,
      "පාසලේ": 10341,
      "හඳුන්": 10342,
      "ස්ත්රී": 10343,
      "එක්දින": 10344,
      "සන්ධා": 10345,
      "##ුරය": 10346,
      "ගැටලුව": 10347,
      "ප්රතිසංස්ක": 10348,
      "##ධන": 10349,
      "කීව": 10350,
      "කාන්තාවක්": 10351,
      "##ටික්": 10352,
      "බොහොමයක්": 10353,
      "##සල්": 10354,
      "කෙටු": 10355,
      "අලුත්ම": 10356,
      "පවරා": 10357,
      "ප්රජාතන්ත්රවාදය": 10358,
      "උළෙල": 10359,
      "කාඩ්": 10360,
      "අඳු": 10361,
      "කාර්යාලයේ": 10362,
      "මූණ": 10363,
      "අයෙක්": 10364,
      "##නස්": 10365,
      "##න්ඩ්": 10366,
      "##ියන්ගේ": 10367,
      "##පාදනය": 10368,
      "කීවේය": 10369,
      "මොකද්ද": 10370,
      "ගැහැණු": 10371,
      "ගමනක්": 10372,
      "195": 10373,
      "සව": 10374,
      "යවන්න": 10375,
      "ප්රාන්ත": 10376,
      "කුමන්ත්රණ": 10377,
      "##ිනො": 10378,
      "යෙද": 10379,
      "හොඳටම": 10380,
      "බංග්ලා": 10381,
      "කෝල්": 10382,
[...]
